{"<unk>": 0, "<s>": 1, "</s>": 2, "s": 3, "\u2581the": 4, ",": 5, ".": 6, "\u2581of": 7, "\u2581and": 8, "\u2581to": 9, "\u2581in": 10, "\u2581": 11, "\u2581a": 12, "ing": 13, "ed": 14, "\u2581is": 15, "d": 16, "\u2581for": 17, "-": 18, "\u2581that": 19, "t": 20, "\u2581The": 21, "\u2581on": 22, "\u2581with": 23, "n": 24, "e": 25, "y": 26, "\u2581(": 27, "\u2581be": 28, "ly": 29, "er": 30, "\u2581you": 31, "\u2581by": 32, ":": 33, "al": 34, "\u2581are": 35, "\u2581or": 36, ")": 37, "\u2581I": 38, "\u2581as": 39, "r": 40, "\u2581it": 41, "\u2581from": 42, "a": 43, "\u2581S": 44, "\u2019": 45, "\u2581not": 46, "'": 47, "re": 48, "\u2581A": 49, "o": 50, "\u2581an": 51, "\u2581this": 52, "\u2581at": 53, "or": 54, "in": 55, "m": 56, "\u2581was": 57, "\u2581have": 58, "\u2581will": 59, "es": 60, "\u2581your": 61, "\u2581re": 62, "\u2581In": 63, "\u2581can": 64, "\u2581C": 65, "i": 66, "g": 67, "le": 68, "\u2581which": 69, "th": 70, "S": 71, "\u2581all": 72, "\u2581has": 73, "C": 74, "ation": 75, "\u2581-": 76, "p": 77, "c": 78, "\u2581we": 79, "ar": 80, "/": 81, "\u2581de": 82, "?": 83, "A": 84, "b": 85, "l": 86, "u": 87, "\u2581\u201c": 88, "\u2581their": 89, "I": 90, "il": 91, ";": 92, "ur": 93, "\u2581B": 94, "P": 95, "\u2581E": 96, "\u2581F": 97, "on": 98, "an": 99, "ic": 100, "\u2581\"": 101, "it": 102, "D": 103, "\u2581s": 104, "en": 105, "\u2581more": 106, "ion": 107, "\u2581one": 108, "\u2581its": 109, "et": 110, "\u2581P": 111, "\u2581p": 112, "f": 113, "\u2581our": 114, "\u2581he": 115, "\u2581also": 116, "\u2581b": 117, "ll": 118, "ment": 119, "st": 120, "T": 121, "k": 122, "\u2581other": 123, "la": 124, "\u2581It": 125, "ive": 126, "\u2581so": 127, "ity": 128, "at": 129, "E": 130, "ri": 131, "w": 132, "\u25811": 133, "ers": 134, "M": 135, "li": 136, "h": 137, "\u2581who": 138, "ve": 139, "\u2581but": 140, "\u2581This": 141, "\u2581they": 142, "\u2581do": 143, "\u2581been": 144, "ro": 145, "\u2581time": 146, "ter": 147, "\u2581his": 148, "\u2581T": 149, "ent": 150, "el": 151, "\u2581Re": 152, "\u2581new": 153, "able": 154, "\u2581G": 155, "B": 156, "O": 157, "ce": 158, "2": 159, "\u2581any": 160, "\u2581were": 161, "\u2581about": 162, "\u2581out": 163, "\u2581con": 164, "F": 165, "\u2581M": 166, "ate": 167, "\u2581than": 168, "\u2581K": 169, "\u25812": 170, "\u2581We": 171, "ol": 172, "ck": 173, "ia": 174, "L": 175, "ra": 176, "\u2581up": 177, "\u2581e": 178, "\u25813": 179, "\u258119": 180, "\u2581may": 181, "\u2581H": 182, "\u2581no": 183, "\u2581work": 184, "ge": 185, "\u201d": 186, "\u2581use": 187, "ir": 188, "se": 189, "\u2581D": 190, "ch": 191, "id": 192, "lo": 193, "x": 194, "te": 195, "\u2581me": 196, "\u2581un": 197, "\u2581L": 198, "\u2581people": 199, "co": 200, "ne": 201, "um": 202, "\"": 203, "\u2581had": 204, "\u2581information": 205, "\u2581would": 206, "est": 207, "ul": 208, "\u2581if": 209, "\u2581when": 210, "\u2581first": 211, "ant": 212, "ance": 213, "as": 214, "de": 215, "\u2581there": 216, "op": 217, "z": 218, "\u2581co": 219, "ist": 220, "G": 221, "\u2581into": 222, "\u2581over": 223, "\u2581O": 224, "\u2581such": 225, "!": 226, "age": 227, "\u2581only": 228, "ies": 229, "\u2581He": 230, "us": 231, "ta": 232, "R": 233, "com": 234, "\u2581Ma": 235, "\u2581You": 236, "\u2581c": 237, "\u2581under": 238, "ary": 239, "na": 240, "\u2581For": 241, "ad": 242, ").": 243, "\u2581N": 244, "...": 245, "\u2581these": 246, "\u2581should": 247, "\u2581To": 248, "\u2581pro": 249, "\u2581what": 250, "\u2581them": 251, "ry": 252, "\u2581W": 253, "ine": 254, "ma": 255, "to": 256, "\u2581my": 257, "\u2581said": 258, "\u2581di": 259, "im": 260, "\u2581two": 261, "\u2581between": 262, "H": 263, "vi": 264, "\u2581most": 265, "ated": 266, "\u2581us": 267, "\u2581part": 268, "\u25814": 269, "ence": 270, "\u2581De": 271, "\u2581well": 272, "20": 273, "am": 274, "\u2581like": 275, "\u2581R": 276, "\u2581st": 277, "\u2581some": 278, "\u2581\u2013": 279, "mp": 280, "\u2581Con": 281, "me": 282, "ut": 283, "\u2581t": 284, "\u2581dis": 285, "\u2581support": 286, "\u2581years": 287, "N": 288, "\u2581If": 289, "no": 290, "ty": 291, "\u2581where": 292, "un": 293, "\u2581world": 294, "ill": 295, "\u2581make": 296, "),": 297, "\u25815": 298, "mo": 299, "\u2581through": 300, "ating": 301, "ag": 302, "pe": 303, "\u2581ex": 304, "\u2581very": 305, "ot": 306, "4": 307, "is": 308, "tic": 309, "\u2581help": 310, "\u2581take": 311, "\u2581g": 312, "\u2581data": 313, "ting": 314, "ian": 315, ".\u201d": 316, "\u2581her": 317, "\u2581U": 318, "\u2581comp": 319, "\u2581way": 320, "\u2581pre": 321, "V": 322, "U": 323, "\u2581after": 324, "\u2581place": 325, "\u258110": 326, "\u2581made": 327, "\u2581system": 328, "tion": 329, "\u2581need": 330, "ke": 331, "ni": 332, "\u2581those": 333, "\u2581United": 334, "\u2581must": 335, "ci": 336, "\u2581Canada": 337, "\u2581d": 338, "v": 339, "\u2581per": 340, "\u2581year": 341, "nd": 342, "\u2581Co": 343, "\u2581many": 344, "ight": 345, "00": 346, "\u2581order": 347, "\u2581used": 348, "\u2581La": 349, "up": 350, "\u2581want": 351, "per": 352, "W": 353, "and": 354, "\u2581find": 355, "\u2581form": 356, "\u2581know": 357, "ous": 358, "\u2581No": 359, "ness": 360, "\u2581An": 361, "\u2581just": 362, "\u2581number": 363, "\u2581see": 364, "\u2581get": 365, "min": 366, "\u2581And": 367, "\u2581mo": 368, "\u2581report": 369, "1": 370, "\u2581could": 371, "\u2581end": 372, "\u2581Le": 373, "3": 374, "go": 375, "\u2581European": 376, "\u2581right": 377, "\u2581now": 378, "\u2581good": 379, "\u2581life": 380, "\u2581Pa": 381, "\u2581development": 382, "\u2581how": 383, "\u2581States": 384, "\u25816": 385, "\u2581Mo": 386, "\u2581V": 387, "\u2581each": 388, "mi": 389, "\u2581she": 390, "\u2581being": 391, "\u2581including": 392, "\u2581Al": 393, "\u2581f": 394, "\u2581even": 395, "\u00e9": 396, "ie": 397, "\u2581best": 398, "\u2581public": 399, "\u2581la": 400, "\u2581access": 401, "\u2581same": 402, "ical": 403, "\u2581h": 404, "\u2581shall": 405, "\u2581go": 406, "ations": 407, "ca": 408, "all": 409, "\u2581Be": 410, "ite": 411, "ver": 412, "be": 413, "\u2581Ca": 414, "\u2581market": 415, "ho": 416, "\u2581day": 417, "\u2581because": 418, "the": 419, "\u2581services": 420, "les": 421, "ism": 422, "\u2581countries": 423, "ber": 424, "ha": 425, "ture": 426, "]": 427, "po": 428, "\u2581As": 429, "\u2581before": 430, "ti": 431, "\u2581St": 432, "\u25817": 433, "\u2581international": 434, "ful": 435, "man": 436, "\u2581during": 437, "\u2581Ha": 438, "ted": 439, "\u2581So": 440, "ities": 441, "\u2581health": 442, "\u2581human": 443, "6": 444, "ish": 445, "\u2581different": 446, "mb": 447, "\u2581ra": 448, "va": 449, "\u2581New": 450, "\u2581Ro": 451, "pa": 452, "\u2581en": 453, "om": 454, "di": 455, "\u2581without": 456, "\u2581ro": 457, "\u2581Ba": 458, "\u2581&": 459, "\u2581play": 460, "\u2581show": 461, "\u258120": 462, "\u2581within": 463, "\u2581Commission": 464, "con": 465, "ac": 466, "ions": 467, "\u2581provide": 468, "der": 469, "\u2581Mar": 470, "ling": 471, "\u2581Do": 472, "\u2581him": 473, "\u2581plan": 474, "\u2581free": 475, "one": 476, "\u2581high": 477, "\u2581process": 478, "ner": 479, "7": 480, "ow": 481, "\u2581found": 482, "ff": 483, "\u2581law": 484, "ru": 485, "\u2581car": 486, "\u2581m": 487, "\u2581What": 488, "\u2581bo": 489, "\u2581own": 490, "ven": 491, "\u2581set": 492, "ide": 493, "em": 494, "\u2581Li": 495, "\u2581control": 496, "ub": 497, "\u2581available": 498, "\u25818": 499, "\u2581open": 500, "end": 501, "\u2581following": 502, "\u2581country": 503, "\u2581against": 504, "our": 505, "%": 506, "\u2581business": 507, "sion": 508, "\u2581Bo": 509, "\u2581Me": 510, "\u2581Pro": 511, "\u2581name": 512, "\u2581every": 513, "ized": 514, "ex": 515, "\u2581li": 516, "\u2581service": 517, "\u2581All": 518, "ton": 519, "\u2581second": 520, "son": 521, "lic": 522, "\u2581great": 523, "\u2581here": 524, "gen": 525, "\u2581both": 526, "land": 527, "serv": 528, "vo": 529, "mon": 530, "\u2581But": 531, "ld": 532, "\u2581book": 533, "\u2581On": 534, ".\"": 535, "\u2581water": 536, "\u2581back": 537, "ction": 538, "\u2581state": 539, "\u2581three": 540, "ba": 541, "\u2581Po": 542, "tor": 543, "\u2581vi": 544, "\u2581They": 545, "\u2581There": 546, "led": 547, "\u2581children": 548, "\u2581Council": 549, "\u2581government": 550, "\u2581long": 551, "tro": 552, "\u2581God": 553, "\u2581products": 554, "\u2581does": 555, "he": 556, "\u2581change": 557, "da": 558, "\u2581Sa": 559, "\u2581sub": 560, "\u2581experience": 561, "\u2581view": 562, "tal": 563, "\u2581fl": 564, "\u2581important": 565, "less": 566, "ial": 567, "\u2581national": 568, "\u2581point": 569, "\u2581ma": 570, "ga": 571, "\u2581Te": 572, "\u2581ca": 573, "K": 574, "ak": 575, "\u2581Se": 576, "\u2581Lo": 577, "\u2581hand": 578, "\u2581possible": 579, "hi": 580, "\u2581man": 581, "\u2581interest": 582, "The": 583, "ward": 584, "\u2581Committee": 585, "mer": 586, "red": 587, "\u25819": 588, "\u2581case": 589, "ability": 590, "\u2581w": 591, "\u2581social": 592, "\u2581present": 593, "os": 594, "do": 595, "\u2581With": 596, "\u2581example": 597, "\u2581account": 598, "tra": 599, "ard": 600, "0": 601, "\u2581r": 602, "\u2581o": 603, "\u2581means": 604, "wa": 605, "ual": 606, "\u258118": 607, "\u2581rights": 608, "\u2581while": 609, "\u2581last": 610, "\u2581At": 611, "\u2581Di": 612, "ship": 613, "\u2581women": 614, "\u2581sh": 615, "sh": 616, "ud": 617, "ick": 618, "row": 619, "ig": 620, "\u2581home": 621, "\u2581area": 622, "\u2581much": 623, "\u2581[": 624, "\u2581'": 625, "\u2581don": 626, "\u2581research": 627, "\u2581value": 628, "\u2581respect": 629, "\u2581Y": 630, "ible": 631, "we": 632, "ap": 633, "\u2581power": 634, "\u2581application": 635, "int": 636, "king": 637, "\u2581Vi": 638, "\u258112": 639, "\u2581design": 640, "ize": 641, "\u2581give": 642, "tain": 643, "ise": 644, "\u2581special": 645, "\u2581period": 646, "od": 647, "qu": 648, "\u2581Ho": 649, "\u2581since": 650, "\u2581inter": 651, "ries": 652, "\u2581lo": 653, "\u2581room": 654, "\u2581Hotel": 655, "\u2581personal": 656, "ative": 657, "(": 658, "000": 659, "\u2581level": 660, "\u2581say": 661, "\u2581non": 662, "\u2581cl": 663, "ster": 664, "\u258115": 665, "\u2581small": 666, "\u2581post": 667, "\u2581around": 668, "ang": 669, "\u2581State": 670, "ens": 671, "\u2581file": 672, "Y": 673, "\u2581product": 674, "\u2581When": 675, "\u2581close": 676, "8": 677, "\u2581then": 678, "\u2581project": 679, "5": 680, "\u2581Car": 681, "\u2581think": 682, "\u2581website": 683, "ong": 684, "ure": 685, "\u2581large": 686, "\u2581contain": 687, "\u2581Canadian": 688, "\u2581Z": 689, "\u2581type": 690, "lin": 691, "\u2581million": 692, "\u2581using": 693, "\u2581allow": 694, "\u2581person": 695, "ization": 696, "ab": 697, "ally": 698, "\u2581address": 699, "\u2581love": 700, "\u2581week": 701, "\u2581according": 702, "\u2581full": 703, "\u2581group": 704, "\u2581action": 705, "ten": 706, "\u2581company": 707, "\u2581Nations": 708, "\u2581gr": 709, "\u2581still": 710, "\u2581become": 711, "\u2581activities": 712, "\u2581ensure": 713, "lu": 714, "EC": 715, "\u2581provided": 716, "qui": 717, "\u2581fi": 718, "\u2581list": 719, "\u2581down": 720, "\u2581offer": 721, "\u2581request": 722, "che": 723, "\u2581How": 724, "ments": 725, "\u2581US": 726, "\u2581near": 727, "\u2581am": 728, "ring": 729, "\u2581test": 730, "\u2581Ra": 731, "\u2581start": 732, "ice": 733, "\u2581local": 734, "\u2581result": 735, "\u2581Bu": 736, "br": 737, "for": 738, "\u2581come": 739, "way": 740, "\u2581po": 741, "\u2581Member": 742, "ron": 743, "ator": 744, "line": 745, "\u2581decision": 746, "\u2581Com": 747, "\u2581economic": 748, "\u2581look": 749, "\u2581quality": 750, "\u2581did": 751, "\u2581pass": 752, "\u2581document": 753, "cu": 754, "\u2581meeting": 755, "\u2581Su": 756, "ach": 757, "\u2581review": 758, "\u2581less": 759, "\u2581J": 760, "\u2581another": 761, "\u2581Ta": 762, "\u2581family": 763, "\u2581based": 764, "\u2581\u2014": 765, "ell": 766, "\u2581claim": 767, "\u2581sp": 768, "\u2581light": 769, "bi": 770, "\u2581Pre": 771, "\u2581risk": 772, "\u2581individual": 773, "av": 774, "ound": 775, "\u2581main": 776, "\u2581En": 777, "res": 778, "\u2581site": 779, "\u2581body": 780, "ding": 781, "air": 782, "\u2581least": 783, "\u2581particular": 784, "\u2581se": 785, "ning": 786, "io": 787, "ft": 788, "\u2581hotel": 789, "X": 790, "gu": 791, "ration": 792, "\u2581certain": 793, "\u2581\u2018": 794, "\u2581reason": 795, "\u2581management": 796, "bo": 797, "ip": 798, "\u2581Europe": 799, "\u2581position": 800, "\u2581share": 801, "\u2581device": 802, "\u2581remain": 803, "\u2581International": 804, "\u2581team": 805, "\u2581men": 806, "\u2581off": 807, "\u2581security": 808, "\u2581rate": 809, "\u2581real": 810, "ue": 811, "late": 812, "\u2581These": 813, "\u2581live": 814, "\u2581page": 815, "\u2581imp": 816, "\u2581ho": 817, "\u2581policy": 818, "au": 819, "\u2581region": 820, "\u2581force": 821, "ctor": 822, "\u2581house": 823, "\u2581members": 824, "\u2581contact": 825, "\u2581follow": 826, "val": 827, "\u2581days": 828, "ile": 829, "\u258130": 830, "ep": 831, "10": 832, "ay": 833, "\u2581program": 834, "cal": 835, "\u2581Mr": 836, "mm": 837, "\u2581financial": 838, "\u2581game": 839, "\u2581better": 840, "ification": 841, "\u2581always": 842, "tin": 843, "\u258111": 844, "act": 845, "ook": 846, "ki": 847, "unt": 848, "\u2581$": 849, ",\u201d": 850, "\u2581few": 851, "cc": 852, "\u2581Mi": 853, "\u2581visit": 854, "\u2581Article": 855, "\u2581further": 856, "ify": 857, "\u2581function": 858, "\u2581Ja": 859, "\u2581able": 860, "pl": 861, "\u2581France": 862, "\u2581line": 863, "\u2581Ad": 864, "\u2581conditions": 865, "tu": 866, "\u2581cover": 867, "\u2581i": 868, "bu": 869, "ev": 870, "\u2581specific": 871, "\u2581World": 872, "\u2581Na": 873, "\u2581fact": 874, "\u2581Wi": 875, "log": 876, "\u2581food": 877, "let": 878, "\u2581General": 879, "\u2581read": 880, "\u2581Act": 881, "\u2581im": 882, "sk": 883, "\u2581Ex": 884, "\u2581She": 885, "\u2581However": 886, "pro": 887, "\u2581working": 888, "ER": 889, "\u2581past": 890, "\u2581effective": 891, "\u2581travel": 892, "fi": 893, "ium": 894, "\u2581call": 895, "\u2581continue": 896, "\u2581method": 897, "que": 898, "\u2581programme": 899, "\u2581Cha": 900, "\u2581Hotels": 901, "\u2581air": 902, "\u2581pa": 903, "\u2581link": 904, "port": 905, "\u2581course": 906, "\u2581necessary": 907, "by": 908, "\u2581third": 909, "mit": 910, "\u2581deal": 911, "\u2581among": 912, "\u2581future": 913, "ph": 914, "out": 915, "of": 916, "\u2581increase": 917, "pi": 918, "fu": 919, "9": 920, "\u2581city": 921, "\u2581network": 922, "\u2581cap": 923, "\u2581next": 924, "\u2581subject": 925, "\u2581v": 926, "\u2581app": 927, "\u2581cr": 928, "ger": 929, "fa": 930, "50": 931, "\u2581protect": 932, "ces": 933, "\u2581French": 934, "\u2581cause": 935, "\u2581Ch": 936, "\u2581energy": 937, "\u2581That": 938, "ah": 939, "ler": 940, "\u2581online": 941, "\u2581war": 942, "\u2581four": 943, "ox": 944, "\u2581Dr": 945, "\u2581tra": 946, "\u2581Our": 947, "\u2581clear": 948, "\u258114": 949, "\u2581va": 950, "\u2581feel": 951, "par": 952, "\u2581education": 953, "\u2581never": 954, "bor": 955, "\u2581Qu": 956, "\u2581member": 957, "ES": 958, "\u2581several": 959, "\u2581care": 960, "fer": 961, "form": 962, "\u2581search": 963, "\u2581class": 964, "\u2581community": 965, "\u2581today": 966, "\u2581old": 967, "\u258116": 968, "ka": 969, "vision": 970, "ert": 971, "\u2581sign": 972, "\u2581bi": 973, "\u2581Government": 974, "cent": 975, "\u2581du": 976, "ign": 977, "lar": 978, "\u2581act": 979, "dic": 980, "ther": 981, "\u2581return": 982, "\u2581UN": 983, "vel": 984, "J": 985, "\u2581May": 986, "\u2581Jo": 987, "ever": 988, "ral": 989, "\u2581already": 990, "\u2581sector": 991, "\u2581believe": 992, "\u2581legal": 993, "\u2581given": 994, "\u2581content": 995, "hy": 996, "\u2581areas": 997, "\u2581date": 998, "\u2581step": 999, ".1": 1000, "\u2581include": 1001, "oc": 1002, "\u2581create": 1003, "\u2581above": 1004, "\u2581Sp": 1005, "ja": 1006, "\u2581le": 1007, "\u2581represent": 1008, "\u2581amount": 1009, "\u2581put": 1010, "\u2581school": 1011, "\u2581fa": 1012, "\u2581together": 1013, "\u258117": 1014, "\u2581having": 1015, "\u258113": 1016, "\u2581current": 1017, "tri": 1018, "tch": 1019, "\u2581head": 1020, "\u2581results": 1021, "\u2581trade": 1022, "ug": 1023, "\u2581field": 1024, "\u2581President": 1025, "uch": 1026, "\u2581EU": 1027, "\u2581complete": 1028, "\u2581global": 1029, "\u2581Gu": 1030, "\u2581Fi": 1031, "\u2581fr": 1032, "ze": 1033, "\u2581measures": 1034, "ier": 1035, "ct": 1036, "\u2581Fa": 1037, "\u2581improve": 1038, "\u2581protection": 1039, "\u2581staff": 1040, "\u2581required": 1041, "ists": 1042, "\u2581prevent": 1043, "\u2581training": 1044, "\u2581practice": 1045, "ving": 1046, "\u2581key": 1047, "\u2581taken": 1048, "\u2581situation": 1049, "\u2581X": 1050, "gue": 1051, "\u2581general": 1052, "\u2581cha": 1053, "ath": 1054, "\u2581often": 1055, "ee": 1056, "\u2581called": 1057, "\u2581role": 1058, "\u2581Comp": 1059, "tre": 1060, "\u2581things": 1061, "\u2581needs": 1062, "\u2581keep": 1063, "gi": 1064, "\u2581k": 1065, "\u2581total": 1066, "\u2581child": 1067, "\u2581political": 1068, "\u2581Ne": 1069, "\u2581production": 1070, "AN": 1071, "\u2581Reg": 1072, "\u2581related": 1073, "ran": 1074, "rs": 1075, "\u2581article": 1076, "\u2581National": 1077, "eg": 1078, "\u2581mis": 1079, "her": 1080, "\u2581heart": 1081, "\u2581One": 1082, "over": 1083, "\u2581record": 1084, "\u2581source": 1085, "\u2581common": 1086, "\u2581require": 1087, "za": 1088, "\u2581various": 1089, "iv": 1090, "\u2581building": 1091, "\u25810": 1092, "tern": 1093, "\u2581tax": 1094, "\u2581appear": 1095, "AR": 1096, "\u2581Da": 1097, "ious": 1098, "oo": 1099, "\u2581bring": 1100, "\u2581Group": 1101, "\u2581study": 1102, "\u2581side": 1103, "\u2581land": 1104, "\u2581known": 1105, "ec": 1106, "\u2581section": 1107, "\u2581reach": 1108, "\u2581agreement": 1109, "\u2581environment": 1110, "\u2581Ga": 1111, "\u2581companies": 1112, "\u2581offers": 1113, "ory": 1114, "\u2581South": 1115, "stitution": 1116, "if": 1117, "tail": 1118, "ition": 1119, "\u2581space": 1120, "\u2581model": 1121, "\u2581stay": 1122, "\u2581natural": 1123, "\u2581Union": 1124, "pt": 1125, "\u2581addition": 1126, "\u2581too": 1127, "lf": 1128, "cip": 1129, "\u2581regard": 1130, "\u2581/": 1131, "\u2581Per": 1132, "mor": 1133, "ix": 1134, "\u2581language": 1135, "cur": 1136, "\u2581going": 1137, "\u2581young": 1138, "ase": 1139, "\u2581hi": 1140, "art": 1141, "tel": 1142, "\u2581consider": 1143, "EN": 1144, "\u2581Ri": 1145, "press": 1146, "fe": 1147, "\u2581question": 1148, "\u2581until": 1149, "\u2581issues": 1150, "car": 1151, "\u2581video": 1152, "und": 1153, "\u2581art": 1154, "\u2581little": 1155, "\u2581option": 1156, "\u2581price": 1157, "ON": 1158, "\u2581cost": 1159, "yl": 1160, "\u2581receive": 1161, "ency": 1162, "\u2581might": 1163, "ou": 1164, "\u2581turn": 1165, "ified": 1166, "\u2581focus": 1167, "j": 1168, "\u2581Dis": 1169, "\u2581Minister": 1170, "ult": 1171, "wi": 1172, "\u2581job": 1173, "\u2581low": 1174, "\u2581pay": 1175, "\u2581strong": 1176, "low": 1177, "\u2581Not": 1178, "\u2581answer": 1179, "\u2581ad": 1180, "IS": 1181, "\u2581Republic": 1182, "\u2581resources": 1183, "\u2581short": 1184, "rate": 1185, "\u2581really": 1186, "wn": 1187, "\u2581anti": 1188, "\u2581whether": 1189, "\u2581private": 1190, "\u2581image": 1191, "\u2581App": 1192, "\u2581reduce": 1193, "\u2581San": 1194, "\u2581face": 1195, "\u2581direct": 1196, "\u2581collect": 1197, "\u2581Th": 1198, "\u2581session": 1199, "\u2581enter": 1200, "\u2581unit": 1201, "\u2581accept": 1202, "\u2581My": 1203, "pp": 1204, "\u2581industry": 1205, "spect": 1206, "lan": 1207, "\u2581peace": 1208, "\u2014": 1209, "19": 1210, "range": 1211, "\u2581technology": 1212, "\u2581treatment": 1213, "\u2581matter": 1214, "matic": 1215, "fin": 1216, "\u2581Africa": 1217, "\u2581approach": 1218, "\u2581official": 1219, "\u2581impact": 1220, "\u2581After": 1221, "\u2581achieve": 1222, "\u2581Ar": 1223, "ju": 1224, "\u2581again": 1225, "\u2581arm": 1226, "tan": 1227, "\u2581located": 1228, "\u2581organ": 1229, "\u2581author": 1230, "\u2581Go": 1231, "\u2581held": 1232, "\u2581American": 1233, "men": 1234, "\u2581Your": 1235, "\u2581recommend": 1236, "time": 1237, "vis": 1238, "\u2581making": 1239, "\u2581Un": 1240, "ai": 1241, "\u2581meet": 1242, "\u2581final": 1243, "\u258124": 1244, "\u258125": 1245, "cy": 1246, "\u2581major": 1247, "\u2581resolution": 1248, "\u2581Man": 1249, "side": 1250, "\u2581His": 1251, "\u2581material": 1252, "\u2581cannot": 1253, "\u2581met": 1254, "struct": 1255, "\u2581lot": 1256, "gg": 1257, "\u2581range": 1258, "ident": 1259, "ust": 1260, "\u2581hold": 1261, "\u2581sur": 1262, "OR": 1263, "\u2581professional": 1264, "30": 1265, "\u2581implementation": 1266, "ware": 1267, "\u2581something": 1268, "\u2581develop": 1269, "\u2581sa": 1270, "use": 1271, "ants": 1272, "\u2581December": 1273, "\u2581Du": 1274, "0%": 1275, "\u2581performance": 1276, "\u2581user": 1277, "\u2581June": 1278, "\u2581won": 1279, "\u2581try": 1280, "\u2581far": 1281, "\u2581provides": 1282, "pri": 1283, "tation": 1284, "\u2581months": 1285, "\u2581kind": 1286, "\u2581add": 1287, "\u2581Office": 1288, "\u2581age": 1289, "\u2581terms": 1290, "\u2581trans": 1291, "\u2581hard": 1292, "ban": 1293, "\u2581due": 1294, "\u2581By": 1295, "\u2581sale": 1296, "ome": 1297, "\u2581event": 1298, "\u2581why": 1299, "\u2581Can": 1300, "\u2581property": 1301, "\u2581ne": 1302, "\u2581created": 1303, "duc": 1304, "\u2581music": 1305, "\u2581away": 1306, "ric": 1307, "\u2581su": 1308, "\u2581contract": 1309, "90": 1310, "\u2581procedure": 1311, "ttle": 1312, "\u2581hours": 1313, "\u2581character": 1314, "\u2581upon": 1315, "\u2581cor": 1316, "\u2581systems": 1317, "\u2581problem": 1318, "\u2581vehicle": 1319, "\u2581China": 1320, "12": 1321, "mber": 1322, "\u2581whole": 1323, "\u2581affect": 1324, "ana": 1325, "\u2581Some": 1326, "istic": 1327, "\u2581population": 1328, "\u2581Other": 1329, "\u2581history": 1330, "\u2581single": 1331, "\u2581implement": 1332, "\u2581Part": 1333, "pon": 1334, "ray": 1335, "\u2581operation": 1336, "\u2581significant": 1337, "\u2581transport": 1338, "\u2581technical": 1339, "80": 1340, "\u2581transfer": 1341, "atory": 1342, "ably": 1343, "cing": 1344, "han": 1345, "\u2581lead": 1346, "iti": 1347, "ins": 1348, "\u2581Regulation": 1349, "ey": 1350, "lt": 1351, "\u2581therefore": 1352, "\u2581Convention": 1353, "\u2581conduct": 1354, "nes": 1355, "\u2581Free": 1356, "\u2581below": 1357, "ash": 1358, "\u2581host": 1359, "mination": 1360, "ung": 1361, "jo": 1362, "ef": 1363, "\u2581Col": 1364, "\u2581along": 1365, "len": 1366, "\u2581party": 1367, "\u2581win": 1368, "\u2581move": 1369, "\u2581basis": 1370, "sa": 1371, "part": 1372, "lor": 1373, "\u2581potential": 1374, "\u2581five": 1375, "\u2581table": 1376, "\u2581appropriate": 1377, "mal": 1378, "\u2581Ju": 1379, "11": 1380, "\u2581More": 1381, "\u2581growth": 1382, "\u2581accordance": 1383, "put": 1384, "IC": 1385, "\u2581requirements": 1386, "day": 1387, "\u2581media": 1388, "\u2581Health": 1389, "dy": 1390, "\u2581communication": 1391, "\u2581idea": 1392, "\u2581March": 1393, "\u2581enjoy": 1394, "\u2581Development": 1395, "\u2581July": 1396, "\u2581Home": 1397, "\u2581money": 1398, "\u2581learn": 1399, "\u2581difficult": 1400, "\u25812017": 1401, "\u2581living": 1402, "\u2581later": 1403, "\u2581across": 1404, "\u2581bar": 1405, "\u2581apply": 1406, "\u2581night": 1407, "\u2581received": 1408, "RE": 1409, "\u2581sent": 1410, "qua": 1411, "\u2581film": 1412, "\u2581Work": 1413, "\u2581left": 1414, "\u2581partner": 1415, "\u2581Or": 1416, "\u258121": 1417, "\u2581pain": 1418, "\u2581office": 1419, "\u2581hotels": 1420, "rit": 1421, "We": 1422, "\u2581especially": 1423, "\u25812018": 1424, "mark": 1425, "\u2581paragraph": 1426, "ina": 1427, "\u2581map": 1428, "\u2581investment": 1429, "\u2581location": 1430, "\u2581Si": 1431, "\u2581text": 1432, "\u2581computer": 1433, "\u2581measure": 1434, "\u2581happen": 1435, "\u2581please": 1436, "ology": 1437, "\u2581structure": 1438, "\u2581card": 1439, "\u2581projects": 1440, "\u2581cases": 1441, "\u2581knowledge": 1442, "bit": 1443, "\u2581charge": 1444, "ake": 1445, "\u2581Wa": 1446, "\u2581aim": 1447, "\u2581groups": 1448, "tur": 1449, "ject": 1450, "\u2581effect": 1451, "ble": 1452, "\u2581additional": 1453, "ised": 1454, "\u2581perfect": 1455, "ny": 1456, "ular": 1457, "\u2581stop": 1458, "\u2581civil": 1459, "\u2581limit": 1460, "\u2581January": 1461, "\u2581considered": 1462, "\u2581challenge": 1463, "Q": 1464, "ush": 1465, "ates": 1466, "\u2581super": 1467, "pla": 1468, "elect": 1469, "\u2581death": 1470, "\u2581serve": 1471, "net": 1472, "\u2581bank": 1473, "\u2581engine": 1474, "\u2581exist": 1475, "\u2581nature": 1476, "\u2581teach": 1477, "ging": 1478, "\u258150": 1479, "\u2581issue": 1480, ",\"": 1481, "\u2581item": 1482, "\u2581September": 1483, "\u2581principle": 1484, "\u2581watch": 1485, "\u2581minutes": 1486, "\u2581auto": 1487, "ink": 1488, "\u2581produce": 1489, "\u2581Book": 1490, "\u2581America": 1491, ".5": 1492, "\u2581parties": 1493, "ear": 1494, "\u2581taking": 1495, "\u2581developed": 1496, "\u2581Paris": 1497, "\u2581wide": 1498, "\u2581established": 1499, "\u2581organizations": 1500, "cho": 1501, "gar": 1502, "\u2581sea": 1503, "\u2581buy": 1504, "\u2581Mon": 1505, "\u2581maintain": 1506, "\u2581Bi": 1507, "vent": 1508, "\u2581factor": 1509, "ological": 1510, "mission": 1511, "\u2581previous": 1512, "\u2581discover": 1513, "\u2581II": 1514, "\u2581treat": 1515, "cient": 1516, "\u2581sc": 1517, "\u2581ha": 1518, "\u2581safety": 1519, "\u2581depend": 1520, "fect": 1521, "AL": 1522, "\u2581progress": 1523, "\u2581October": 1524, "\u2581understand": 1525, "\u2581From": 1526, "fo": 1527, "nch": 1528, "\u2581store": 1529, "\u2581talk": 1530, "\u2581Char": 1531, "\u2581tell": 1532, "\u2581wish": 1533, "\u2581check": 1534, "\u2581mar": 1535, "\u2581Ph": 1536, "\u2581capital": 1537, "\u2581problems": 1538, "\u2581speak": 1539, "\u2581Air": 1540, "ough": 1541, "\u2581al": 1542, "\u2581cell": 1543, "ose": 1544, "\u2581statement": 1545, "\u2581particularly": 1546, "reg": 1547, "\u2581War": 1548, "\u2581society": 1549, "\u2581tri": 1550, "\u2581North": 1551, "\u2581sure": 1552, "tric": 1553, "\u2581month": 1554, "\u2581Get": 1555, "\u2581perform": 1556, "lock": 1557, "tru": 1558, "\u25811,": 1559, "\u2581entire": 1560, "\u258122": 1561, "posed": 1562, "\u2581software": 1563, "_": 1564, "chi": 1565, "\u2581English": 1566, "\u2581comm": 1567, "\u2581Now": 1568, "\u2581done": 1569, "\u2581goal": 1570, "mic": 1571, "\u2581patient": 1572, "\u2581fast": 1573, "\u2581plant": 1574, "\u2581Sta": 1575, "char": 1576, "\u2581flow": 1577, "\u2581percent": 1578, "\u2581run": 1579, "15": 1580, "grad": 1581, "\u2581Human": 1582, "\u2581pen": 1583, "\u2581once": 1584, "\u2581oil": 1585, "\u2581inform": 1586, "\u25812015": 1587, "\u2581pe": 1588, "\u2581fund": 1589, "\u2581Community": 1590, "\u2581organization": 1591, "\u25812016": 1592, "\u2581message": 1593, "\u2581cooperation": 1594, "sis": 1595, "\u2581ten": 1596, "\u2581objective": 1597, "iz": 1598, "\u2581Add": 1599, "har": 1600, "ient": 1601, "ulation": 1602, "\u2581six": 1603, "\u2581100": 1604, "\u2581machine": 1605, "\u2581responsible": 1606, "\u2581seem": 1607, "\u2581Assembly": 1608, "01": 1609, "\u2581November": 1610, "\u2581April": 1611, "\u2581electric": 1612, "\u2581times": 1613, "\u2581...": 1614, "IN": 1615, "\u2581designed": 1616, "\u2581deliver": 1617, "\u2581gas": 1618, "\u2581authorities": 1619, "lig": 1620, "ising": 1621, "\u2581equipment": 1622, "\u2581Information": 1623, "\u2581mind": 1624, "\u2581yet": 1625, "\u2581express": 1626, "\u2581active": 1627, ".3": 1628, "\u2581either": 1629, "AS": 1630, "ney": 1631, "\u2581log": 1632, "\u2581send": 1633, "\u2581connection": 1634, "\u2581early": 1635, "\u2581Are": 1636, "\u2581El": 1637, "\u2581levels": 1638, "\u2581target": 1639, "cor": 1640, "\u2581size": 1641, "\u2581easy": 1642, "\u2581top": 1643, "\u2581University": 1644, "\u2581equal": 1645, "\u2581directly": 1646, "\u2581similar": 1647, "\u2581itself": 1648, "\u2581however": 1649, "mun": 1650, "ific": 1651, "\u2581Am": 1652, "\u2581concern": 1653, "\u2581leave": 1654, "cul": 1655, "scribe": 1656, "\u2581relevant": 1657, "\u2581payment": 1658, "\u2581Israel": 1659, "\u2581movie": 1660, "\u2581photo": 1661, "AT": 1662, "70": 1663, "\u2581users": 1664, "\u2581See": 1665, "pir": 1666, "\u2581version": 1667, "\u2581attack": 1668, "ple": 1669, "\u2581Service": 1670, "\u2581changes": 1671, "\u2581regional": 1672, "\u2581fo": 1673, "\u2581multi": 1674, "\u2581ever": 1675, "\u2581solution": 1676, "\u2581rest": 1677, "\u2581Ru": 1678, "\u2581took": 1679, "\u2581let": 1680, "\u2581advance": 1681, "\u2581hope": 1682, "\u2581prior": 1683, "ib": 1684, "\u2581invention": 1685, "ham": 1686, "\u2581representative": 1687, "\u2581prefer": 1688, "\u2581object": 1689, "\u2581success": 1690, "\u2581efforts": 1691, "\u2581term": 1692, "ica": 1693, "\u2581Of": 1694, "\u2581Germany": 1695, "\u2581purpose": 1696, "\u2581longer": 1697, "\u2581capacity": 1698, "\u2581draw": 1699, "\u2581City": 1700, "light": 1701, "\u2581Art": 1702, "\u2581temperature": 1703, "\u2581First": 1704, "\u2581High": 1705, "ade": 1706, "IT": 1707, "van": 1708, "\u2581Director": 1709, "\u2581thought": 1710, "\u2581disease": 1711, "cious": 1712, "\u2581relationship": 1713, "dition": 1714, "\u2581rep": 1715, "\u2581promote": 1716, "\u2581weight": 1717, "crea": 1718, "\u2581According": 1719, "\u2581needed": 1720, "[": 1721, "\u2581station": 1722, "\u2581activity": 1723, "wer": 1724, "izing": 1725, "\u2581mass": 1726, "\u2581Plan": 1727, "\u2581Security": 1728, "\u2581outside": 1729, "ame": 1730, "18": 1731, "\u2581Court": 1732, "\u2581reference": 1733, "\u2581series": 1734, "\u2581says": 1735, "\u2581Ste": 1736, "\u2581rules": 1737, "\u2581Mu": 1738, "\u2581exchange": 1739, "\u2581India": 1740, "\u2581movement": 1741, "\u2581centre": 1742, "\u2581costs": 1743, "\u2581amend": 1744, "\u2581towards": 1745, "sign": 1746, "\u2581makes": 1747, "\u2581demand": 1748, "\u2581response": 1749, "\u2581web": 1750, "hen": 1751, "\u2581Ve": 1752, "\u2581Ka": 1753, "\u2581Ni": 1754, "mail": 1755, "gan": 1756, "\u2581Cor": 1757, "sure": 1758, "\u2581thing": 1759, "\u2581others": 1760, "\u2581budget": 1761, "\u2581Lu": 1762, "\u2581leader": 1763, "\u2581customers": 1764, "riv": 1765, "\u2581original": 1766, "\u2581Cre": 1767, "ED": 1768, "\u2581Bar": 1769, "\u2581para": 1770, "\u2581students": 1771, "\u2581ask": 1772, "\u2581essential": 1773, "\u2581threat": 1774, "\u2581Inter": 1775, "\u2581ground": 1776, "\u2581enable": 1777, "\u2581fe": 1778, "\u2581court": 1779, "\u2581includes": 1780, "can": 1781, "\u2581Pri": 1782, "\u2581added": 1783, "\u2581environmental": 1784, "13": 1785, "\u2581average": 1786, "\u2581reflect": 1787, "\u2581client": 1788, "\u2581purchase": 1789, "\u2581included": 1790, "mar": 1791, "\u2581came": 1792, "\u2581email": 1793, "\u2581guarantee": 1794, "\u2581developing": 1795, "\u2581launch": 1796, "\u2581surface": 1797, "ement": 1798, "vers": 1799, "\u2581Board": 1800, "\u2581fish": 1801, "\u2581self": 1802, "\u2581condition": 1803, "\u258123": 1804, "cl": 1805, "\u2581Rights": 1806, "\u2581suggest": 1807, "\u2581Parliament": 1808, "\u2581download": 1809, "\u2581sta": 1810, "str": 1811, "\u2581occur": 1812, "ators": 1813, "\u2581military": 1814, "\u2581looking": 1815, "ya": 1816, "\u25812019": 1817, "ped": 1818, "\u2581etc": 1819, "\u2581seen": 1820, "\u2581Conference": 1821, "\u2581everything": 1822, "\u2581update": 1823, "\u2581Fe": 1824, "\u2581invest": 1825, "\u2581assistance": 1826, "\u2581drive": 1827, "\u2581effects": 1828, "\u2581Secretary": 1829, "\u2581enough": 1830, "\u25812014": 1831, "\u2581standard": 1832, "\u2581choice": 1833, "\u2581fight": 1834, "hor": 1835, "\u2581beautiful": 1836, "\u2581train": 1837, "\u2581cent": 1838, "hold": 1839, "\u2581walk": 1840, "\u2581persons": 1841, "\u2581na": 1842, "\u2581mean": 1843, "\u2581almost": 1844, "\u2581words": 1845, "\u2581August": 1846, "\u2581via": 1847, "AC": 1848, "\u2581TV": 1849, "\u2581color": 1850, "\u2581physical": 1851, "ley": 1852, "\u2581Room": 1853, "\u2581wi": 1854, "\u2581stage": 1855, "\u2581clean": 1856, "\u2581Min": 1857, "\u2581animal": 1858, "ect": 1859, "\u2581cross": 1860, "\u2581themselves": 1861, "\u2581February": 1862, "\u2581mission": 1863, "\u2581loss": 1864, "\u2581Tra": 1865, "\u2581thus": 1866, "\u2581unique": 1867, "\u2581indicate": 1868, "\u258140": 1869, "\u2581Product": 1870, "ense": 1871, "\u2581relation": 1872, "\u2581higher": 1873, "je": 1874, "\u2581policies": 1875, "east": 1876, "\u2581big": 1877, "\u2581km": 1878, "phe": 1879, "\u2581kill": 1880, "\u2581safe": 1881, "\u2581culture": 1882, "\u2581Q": 1883, "\u2581choose": 1884, "\u2581ver": 1885, "\u2581eye": 1886, "\u2581events": 1887, "\u2581mark": 1888, "\u2581establish": 1889, "\u2581Park": 1890, "\u2581base": 1891, "RA": 1892, "\u2581modern": 1893, "\u2581initiative": 1894, "bra": 1895, "cycl": 1896, "60": 1897, "bb": 1898, "\u2581Val": 1899, "\u25812012": 1900, "\u2581institutions": 1901, "16": 1902, "\u2581true": 1903, "\u2581opportunity": 1904, "\u2581Pi": 1905, "\u2581fall": 1906, "\u2581brand": 1907, "arch": 1908, "az": 1909, "\u2581Social": 1910, "tom": 1911, "wood": 1912, "\u2581center": 1913, "\u2581Internet": 1914, "\u2581regular": 1915, "OS": 1916, "rupt": 1917, "lation": 1918, "\u2581regulation": 1919, "\u2581parent": 1920, "vol": 1921, "\u2581currently": 1922, "\u2581House": 1923, "ov": 1924, "\u2581cur": 1925, "den": 1926, "\u2581ob": 1927, "Z": 1928, "ged": 1929, "\u2581ship": 1930, "\u25812013": 1931, "\u2581pressure": 1932, "ivity": 1933, "\u25812007": 1934, "\u2581proposal": 1935, "\u2581comment": 1936, "tribu": 1937, "\u2581lu": 1938, "TA": 1939, "\u2581questions": 1940, "\u2581manage": 1941, "\u2581prices": 1942, "\u2581join": 1943, "\u2581credit": 1944, "ax": 1945, "\u2581While": 1946, "\u2581Christ": 1947, "\u2581gl": 1948, "place": 1949, "\u25812006": 1950, "cial": 1951, "\u2581wall": 1952, "\u2581adopted": 1953, "\u2581providing": 1954, "\u2581Services": 1955, "\u2581except": 1956, "\u2581moment": 1957, "\u2581fully": 1958, "\u2581benefit": 1959, "\u2581lower": 1960, "\u2581cut": 1961, "\u25812008": 1962, "\u2581FIG": 1963, "\u2581serious": 1964, "verse": 1965, "\u2581simple": 1966, "\u2581component": 1967, "\u2581recent": 1968, "\u2581Sub": 1969, "\u2581foreign": 1970, "isation": 1971, "af": 1972, "\u2581seek": 1973, "\u25812005": 1974, "\u2581associated": 1975, "ama": 1976, "\u2581register": 1977, "\u2581Why": 1978, "17": 1979, "\u2581friend": 1980, "99": 1981, "\u2581whose": 1982, "\u2581advantage": 1983, "In": 1984, "\u2581popular": 1985, "table": 1986, "\u2581throughout": 1987, "\u2581increased": 1988, "\u2581expert": 1989, "\u2581greater": 1990, "\u2581hundred": 1991, "\u2581half": 1992, "\u2581signal": 1993, "\u2581Centre": 1994, "\u2581sites": 1995, "95": 1996, "\u2581grant": 1997, "\u2581front": 1998, "\u2581Che": 1999, "\u2581road": 2000, "fra": 2001, "based": 2002, "\u2581African": 2003, "*": 2004, "\u2581Price": 2005, "\u2581increasing": 2006, "\u2581recognize": 2007, "uc": 2008, "\u2581comes": 2009, "\u2581build": 2010, "\u2581involved": 2011, "\u2581soon": 2012, "temp": 2013, "\u2581port": 2014, "ker": 2015, "General": 2016, "\u2581John": 2017, "tar": 2018, "\u2581harm": 2019, "lines": 2020, "uff": 2021, "\u258131": 2022, "\u2581features": 2023, "\u2581click": 2024, "\u2581commitment": 2025, "\u2581carry": 2026, "take": 2027, "\u2581explain": 2028, "\u2581citizen": 2029, "\u2581customer": 2030, "pose": 2031, "\u2581Report": 2032, "+": 2033, "\u2581apartment": 2034, "term": 2035, "amp": 2036, "\u2581medical": 2037, "\u2581Jesus": 2038, "\u2581Ver": 2039, "\u2581published": 2040, "\u2581Chi": 2041, "\u2581Bra": 2042, "hu": 2043, "\u2581Special": 2044, "\u2581got": 2045, "OM": 2046, "\u2581East": 2047, "\u2581guide": 2048, "\u2581quick": 2049, "\u2581became": 2050, "\u2581fire": 2051, "new": 2052, "\u2581Church": 2053, "\u2581purposes": 2054, "\u2581Please": 2055, "\u2581materials": 2056, "\u2581Nor": 2057, "\u258128": 2058, "\u2581analysis": 2059, "cri": 2060, "\u2581damage": 2061, "\u2581ju": 2062, "clus": 2063, "\u2581Gra": 2064, "equen": 2065, "\u2581climate": 2066, "\u2581carried": 2067, "\u2581Best": 2068, "\u2581drug": 2069, "\u2581Search": 2070, "\u2581strengthen": 2071, "\u2581blood": 2072, "\u2581framework": 2073, "tract": 2074, "\u2581Har": 2075, "hood": 2076, "\u2581correct": 2077, "\u2581stand": 2078, "\u2581annual": 2079, "\u2581disc": 2080, "\u2581standards": 2081, "\u258126": 2082, "\u2581contribution": 2083, "35": 2084, "\u2581draft": 2085, "\u2581Since": 2086, "\u2581exercise": 2087, "\u2581provisions": 2088, "\u2581Management": 2089, "\u2581difference": 2090, "\u2581Bank": 2091, "\u2581confidence": 2092, "\u2581supply": 2093, "\u2581nothing": 2094, "where": 2095, "\u2581display": 2096, "\u2581fee": 2097, "\u25812010": 2098, "\u2581town": 2099, "\u2581artist": 2100, "\u2581central": 2101, "45": 2102, "\u2581code": 2103, "\u2581told": 2104, "\u2581described": 2105, "\u2581ago": 2106, "\u2581Saint": 2107, "\u2581des": 2108, "\u2581Ti": 2109, "\u2581remove": 2110, "\u2581welcome": 2111, "\u2581direction": 2112, "\u2581cat": 2113, "\u2581avoid": 2114, "CE": 2115, "\u2581economy": 2116, "\u2581mix": 2117, "\u2581benefits": 2118, "\u2581Italy": 2119, "\u2581consist": 2120, "\u2581solutions": 2121, "\u2581existing": 2122, "\u2581print": 2123, "ibility": 2124, "\u2581adapt": 2125, "bin": 2126, "\u2581conflict": 2127, "\u2581cultural": 2128, "ches": 2129, "\u2581mobile": 2130, "ux": 2131, "14": 2132, "\u2581century": 2133, "lk": 2134, "gra": 2135, "\u2581connect": 2136, "\u2581details": 2137, "\u2581Google": 2138, "\u2581Law": 2139, "\u2581rather": 2140, "\u2581Arab": 2141, "40": 2142, "\u2581extend": 2143, "\u2581save": 2144, "\u2581em": 2145, "\u2581girl": 2146, "\u2581micro": 2147, "\u2581collection": 2148, "\u2581(1": 2149, "\u2581flights": 2150, "\u2581forward": 2151, "\u2581Public": 2152, "\u2581proud": 2153, "\u2581nu": 2154, "\u2581billion": 2155, "\u2581owner": 2156, "\u2581Trans": 2157, "\u2581setting": 2158, "\u2581expect": 2159, "\u2581proposed": 2160, "\u2581instrument": 2161, "eau": 2162, "\u2581allows": 2163, "\u2581digital": 2164, "-1": 2165, "TE": 2166, "\u2581contribute": 2167, "\u2581speed": 2168, "\u2581lives": 2169, "\u2581--": 2170, "25": 2171, "\u2581Find": 2172, "\u2581German": 2173, "\u2581limited": 2174, "\u2581Lord": 2175, "\u2581wherein": 2176, "\u2581comprise": 2177, "\u2581communities": 2178, "\u2581Spain": 2179, "\u25812011": 2180, "PA": 2181, "\u2581Department": 2182, "\u2581deep": 2183, "\u2581mode": 2184, "\u25812004": 2185, "\u258127": 2186, "circ": 2187, "ette": 2188, "cade": 2189, "\u2581Day": 2190, "\u25812000": 2191, "\u2581basic": 2192, "\u2581employ": 2193, "\u2581confirm": 2194, "\u2581workers": 2195, "\u2581shown": 2196, "rig": 2197, "\u2581encourage": 2198, "RI": 2199, "ridge": 2200, "\u2581police": 2201, "\u2581Christian": 2202, "\u2581processing": 2203, "\u2581pur": 2204, "\u2581sound": 2205, "\u2581concerned": 2206, "\u2581separate": 2207, "see": 2208, "\u2581partners": 2209, "ME": 2210, "RO": 2211, "\u2581>": 2212, "\u2581adopt": 2213, "\u2581season": 2214, "\u2581Comments": 2215, "\u2581thousand": 2216, "\u2581Her": 2217, "cle": 2218, "\u2581paper": 2219, "rk": 2220, "\u2581attract": 2221, "\u2581star": 2222, "fici": 2223, "\u2581built": 2224, "\u2581fit": 2225, "\u2581vote": 2226, "ko": 2227, "\u2581Fund": 2228, "meter": 2229, "\u2581operations": 2230, "\u2581employees": 2231, "\u2581trip": 2232, "\u2581Economic": 2233, "room": 2234, "\u2581regarding": 2235, "\u2581refer": 2236, "\u2581elements": 2237, "\u2581platform": 2238, "\u2581Even": 2239, "\u2581programs": 2240, "\u2581park": 2241, "\u2581assessment": 2242, "\u2581word": 2243, "\u2581Every": 2244, "\u2581Research": 2245, "\u2581TripAdvisor": 2246, "\u2581sport": 2247, "\u2581facilities": 2248, "\u2581Gi": 2249, "\u2581obtain": 2250, "\u2581context": 2251, "\u2581block": 2252, "\u2581attention": 2253, "\u2581successful": 2254, "\u2581normal": 2255, "\u2581internal": 2256, "\u2581evidence": 2257, "\u2581independent": 2258, "Online": 2259, "\u2581doing": 2260, "lect": 2261, "\u2581System": 2262, "pre": 2263, "graph": 2264, "\u2581mini": 2265, "\u2581Over": 2266, "\u2581freedom": 2267, "rac": 2268, "\u2581complex": 2269, "\u2581picture": 2270, "\u2581commercial": 2271, "\u2581though": 2272, "\u2581West": 2273, "05": 2274, "\u2581strategy": 2275, "\u2581govern": 2276, "\u2581respond": 2277, "\u2581tools": 2278, "stream": 2279, "\u2581phone": 2280, "ek": 2281, "\u2581Top": 2282, "tention": 2283, "\u2581Ob": 2284, "\u2581begin": 2285, "\u2581Here": 2286, "\u2581agree": 2287, "\u2581During": 2288, "\u2581replace": 2289, "\u2581concerning": 2290, "\u2581opinion": 2291, "\u2581correspond": 2292, "\u2581suffer": 2293, "\u2581foot": 2294, "\u2581suit": 2295, "\u25812009": 2296, "\u2581Data": 2297, "ception": 2298, "\u2581asked": 2299, "\u2581(1)": 2300, "\u2581obligation": 2301, "\u2581sell": 2302, "\u2581screen": 2303, "\u2581farm": 2304, "\u2581consumer": 2305, "\u2581weather": 2306, "ute": 2307, "\u2581Island": 2308, "\u2581assist": 2309, "\u2581break": 2310, "\u2581raise": 2311, "\u2581sustainable": 2312, "\u2581referred": 2313, "\u2581studies": 2314, "cra": 2315, "\u2581select": 2316, "\u2581friends": 2317, "\u2581track": 2318, "ane": 2319, "\u2581white": 2320, "bol": 2321, "uit": 2322, "\u2581secure": 2323, "\u2581Va": 2324, "dra": 2325, "\u2581simply": 2326, "\u2581rule": 2327, "\u2581Where": 2328, "\u2581traditional": 2329, "\u2581former": 2330, "\u2581positive": 2331, "year": 2332, "\u2581York": 2333, "\u2581engage": 2334, "\u2581importance": 2335, "\u2581violence": 2336, "\u2581leading": 2337, "\u2581guests": 2338, "\u2581likely": 2339, "\u2581emb": 2340, "\u2581beginning": 2341, "32": 2342, "\u2581nation": 2343, "phone": 2344, "\u2581reported": 2345, "\u2581letter": 2346, "\u2581notice": 2347, "\u2581Women": 2348, "\u2581bus": 2349, "\u2581Exp": 2350, "\u2581Kingdom": 2351, "\u2581Tre": 2352, "\u2581expected": 2353, "gress": 2354, "\u2581responsibility": 2355, "\u2581lack": 2356, "\u2581detect": 2357, "\u2581Port": 2358, "\u2581relative": 2359, "eng": 2360, "NA": 2361, "\u2581status": 2362, "\u2581provision": 2363, "ically": 2364, "rom": 2365, "\u2581heat": 2366, ");": 2367, "\u2581Sea": 2368, "\u2581leg": 2369, "\u2581gain": 2370, "cept": 2371, "cast": 2372, "\u2581release": 2373, "\u2581woman": 2374, "\u258160": 2375, "\u2581discuss": 2376, "app": 2377, "rap": 2378, "\u2581balance": 2379, "\u2581daily": 2380, "CH": 2381, "\u2581started": 2382, "\u2581firm": 2383, "\u2581construction": 2384, "ential": 2385, "aries": 2386, "gram": 2387, "\u2581estimate": 2388, "\u25812003": 2389, "\u2581Use": 2390, "\u2581syn": 2391, "\u2581mother": 2392, "\u2581mechanism": 2393, "\u2581wait": 2394, "\u2581task": 2395, "\u2581ski": 2396, "\u2581connected": 2397, "\u2581story": 2398, "script": 2399, "\u2581concept": 2400, "\u2581(19": 2401, "\u2581identify": 2402, "\u2581Bri": 2403, "\u2581Russian": 2404, "\u2581written": 2405, "\u2581spa": 2406, "abilities": 2407, "\u2581board": 2408, "\u2581easily": 2409, "\u2581path": 2410, "\u2581yourself": 2411, "\u2581Don": 2412, "\u2581Je": 2413, "\u2581write": 2414, "\u2581Bas": 2415, "cular": 2416, "TO": 2417, "nov": 2418, "\u2581coming": 2419, "\u2581spec": 2420, "\u2581Airport": 2421, "\u2581People": 2422, "\u2581Let": 2423, "view": 2424, "\u2581grow": 2425, "ender": 2426, "uck": 2427, "\u2581London": 2428, "\u2581extreme": 2429, "\u2581creation": 2430, "02": 2431, "\u2581British": 2432, "\u2581authority": 2433, "\u2581partnership": 2434, "\u2581enhance": 2435, "\u2581Most": 2436, "\u2581faith": 2437, "\u2581desire": 2438, "\u2581element": 2439, "\u2581went": 2440, "\u2581restaurant": 2441, "\u2581introduce": 2442, "\u2581income": 2443, "\u2581sense": 2444, "cut": 2445, "\u2581hair": 2446, "03": 2447, "mobil": 2448, "arian": 2449, "\u2581opportunities": 2450, "\u2581else": 2451, "\u2581quickly": 2452, "\u2581Del": 2453, "\u2581ability": 2454, "OP": 2455, "\u2581Asia": 2456, "\u2581nor": 2457, "\u2581origin": 2458, "\u2581operating": 2459, "\u2581flight": 2460, "duct": 2461, "\u2581Australia": 2462, "\u2581electronic": 2463, "500": 2464, "\u2581black": 2465, "\u2581decided": 2466, "\u2581largest": 2467, "\u2581Agreement": 2468, "ique": 2469, "\u2581+": 2470, "75": 2471, "LE": 2472, "\u2581floor": 2473, "93": 2474, "06": 2475, "\u2581legislation": 2476, "\u2581bit": 2477, "\u2581actually": 2478, "\u2581sun": 2479, "\u258129": 2480, "33": 2481, "\u2581presence": 2482, "acy": 2483, "\u2581Roman": 2484, "\u2581director": 2485, "\u2581inside": 2486, "\u2581conference": 2487, "US": 2488, "\u2581determine": 2489, "\u2581Business": 2490, "atur": 2491, "\u2581terror": 2492, "\u2581discussion": 2493, "\u2581Bro": 2494, "\u2581participate": 2495, "\u2581export": 2496, "\u25812002": 2497, "\u2581phase": 2498, "eu": 2499, "\u2581everyone": 2500, "\u2581Review": 2501, "\u2581families": 2502, "\u2581Program": 2503, "MA": 2504, "\u2581style": 2505, "\u2581fill": 2506, "bon": 2507, "\u2581forecast": 2508, "\u2581fat": 2509, "\u2581THE": 2510, "\u2581village": 2511, "\u2581skin": 2512, "\u2581observe": 2513, "\u2581agent": 2514, "\u2581employment": 2515, "04": 2516, "\u2581operate": 2517, "burg": 2518, "\u2581processes": 2519, "\u2581View": 2520, "\u2581Mac": 2521, "\u2581degree": 2522, "\u2581length": 2523, "\u2581custom": 2524, "\u2581joint": 2525, "\u2581produced": 2526, "\u2581Star": 2527, "zi": 2528, "terior": 2529, "\u2581south": 2530, "48": 2531, "\u2581Under": 2532, "\u2581skills": 2533, "\u2581applied": 2534, "\u2581Sha": 2535, "4)": 2536, "5%": 2537, "\u2581Cheap": 2538, "rry": 2539, "\u2581crime": 2540, "\u2581influence": 2541, "house": 2542, "\u2581attempt": 2543, "\u2581earth": 2544, "\u2581competition": 2545, "\u2581obtained": 2546, "zo": 2547, "08": 2548, "\u2581anything": 2549, "\u2581industrial": 2550, "\u2581applicable": 2551, "\u2581Organization": 2552, "07": 2553, "read": 2554, "\u2581adjust": 2555, "\u2581trust": 2556, "\u2581permit": 2557, "\u2581selected": 2558, "itive": 2559, "\u2581piece": 2560, "\u2581poly": 2561, "\u2581election": 2562, "\u2581himself": 2563, "\u2581began": 2564, "92": 2565, "\u2581Ko": 2566, "IA": 2567, "\u2581usually": 2568, "\u2581Facebook": 2569, "\u2581Ontario": 2570, "\u2581organisation": 2571, "\u2581Thank": 2572, "standing": 2573, "\u2581recommendations": 2574, "\u2581department": 2575, "\u2581understanding": 2576, "radi": 2577, "\u2581proceed": 2578, "\u2581paid": 2579, "\u2581Russia": 2580, "\u2581Sol": 2581, "\u2581accommodation": 2582, "\u2581Read": 2583, "\u2581campaign": 2584, "\u2581Policy": 2585, "\u2581brought": 2586, "EL": 2587, "\u2581Fran": 2588, "\u2581continued": 2589, "chan": 2590, "\u2581green": 2591, "\u2581born": 2592, "\u2581press": 2593, "\u2581shape": 2594, "\u2581presented": 2595, "\u2581feed": 2596, "\u2581victim": 2597, "\u2581maximum": 2598, "\u2581Central": 2599, "\u2581fun": 2600, "\u2581poor": 2601, "36": 2602, "\u2581lost": 2603, "\u2581format": 2604, "clude": 2605, "\u2581father": 2606, "\u2581Photo": 2607, "21": 2608, "\u2581drink": 2609, "\u2581seven": 2610, "\u2581someone": 2611, "\u2581figure": 2612, "point": 2613, "\u2581Euro": 2614, "\u2581holiday": 2615, "\u2581manner": 2616, "\u2581pool": 2617, "\u2581traffic": 2618, "\u2581external": 2619, "\u2581Hu": 2620, "\u2581metal": 2621, "\u2581generation": 2622, "\u2581stress": 2623, "\u25812001": 2624, "optim": 2625, "\u2581cookies": 2626, "\u2581Arm": 2627, "bel": 2628, "\u2581*": 2629, "\u2581cheap": 2630, "\u2581didn": 2631, "UR": 2632, "\u2581funding": 2633, "\u2581Party": 2634, "\u2581Mont": 2635, "\u2581IN": 2636, "\u2581spend": 2637, "\u2581sexual": 2638, "word": 2639, "\u2581Environment": 2640, "\u2581combine": 2641, "body": 2642, "\u2581attend": 2643, "\u2581visitors": 2644, "\u2581import": 2645, "\u2581profile": 2646, "q": 2647, "\u2581Who": 2648, "\u2581airport": 2649, "\u2581camp": 2650, "\u2581restore": 2651, "\u2581$1": 2652, "\u2581initial": 2653, "65": 2654, "like": 2655, "\u2581Out": 2656, "\u2581Tour": 2657, "\u2581Download": 2658, "\u2581latest": 2659, "ji": 2660, "vert": 2661, "\u2581Directive": 2662, "\u2581door": 2663, "\u2581science": 2664, "\u2581beach": 2665, "\u2581involve": 2666, "\u2581immediately": 2667, "\u2581completely": 2668, "\u2581behind": 2669, "\u2581Black": 2670, "\u2581planning": 2671, "\u2581officer": 2672, "\u2581Show": 2673, "\u2581monitoring": 2674, "\u2581Windows": 2675, "\u2581reserve": 2676, "\u2581delivery": 2677, "\u2581participation": 2678, "\u2581committed": 2679, "\u2581Custom": 2680, "\u2581Web": 2681, "\u2581president": 2682, "activ": 2683, "\u2581rental": 2684, "\u2581Syria": 2685, "\u2013": 2686, "24": 2687, "\u2581innovation": 2688, "uk": 2689, "work": 2690, "\u2581species": 2691, "gel": 2692, "\u2581doesn": 2693, "\u2581Pla": 2694, "\u2581restrict": 2695, "\u2581copy": 2696, "\u2581Many": 2697, "\u2581defined": 2698, "\u2581transform": 2699, "\u2581quite": 2700, "\u2581fair": 2701, "\u2581generally": 2702, "board": 2703, "\u2581edit": 2704, "\u2581dead": 2705, "\u2581federal": 2706, "back": 2707, "cord": 2708, "RC": 2709, "ographic": 2710, "\u2581Each": 2711, "\u2581distribution": 2712, "\u2581relating": 2713, "\u2581layer": 2714, "\u2581Game": 2715, "\u2581ideal": 2716, "\u2581doctor": 2717, "\u2581infrastructure": 2718, "\u2581provider": 2719, "\u2581variety": 2720, "\u2581truth": 2721, "09": 2722, "\u2581submitted": 2723, "\u2581meaning": 2724, "\u2581Play": 2725, "\u2581prepared": 2726, "\u2581match": 2727, "\u2581intended": 2728, "\u2581consult": 2729, "\u2581wind": 2730, "\u2581beyond": 2731, "\u2581nuclear": 2732, "\u2581getting": 2733, "\u2581Any": 2734, "\u2581Japan": 2735, "\u2581feature": 2736, "head": 2737, "\u2581box": 2738, "\u2581bodies": 2739, "\u2581extra": 2740, "\u2581Agency": 2741, "\u2581reform": 2742, "\u2581Action": 2743, "\u2581eat": 2744, "ulate": 2745, "\u2581ready": 2746, "\u2581acid": 2747, "\u2581garden": 2748, "\u2581learning": 2749, "\u2581border": 2750, "\u2581adult": 2751, "\u2581happy": 2752, "\u2581province": 2753, "lia": 2754, "\u2581Global": 2755, "\u2581church": 2756, "\u2581consideration": 2757, "\u2581broad": 2758, "\u2581agreed": 2759, "\u2581offered": 2760, "teen": 2761, "55": 2762, "\u2581command": 2763, "\u2581fail": 2764, "\u2581invite": 2765, "\u2581Chinese": 2766, "\u2581title": 2767, "\u2581issued": 2768, "\u2581Access": 2769, "\u2581Pra": 2770, "\u2581selection": 2771, "\u2581solid": 2772, "\u2581Contact": 2773, "38": 2774, "37": 2775, "\u2581technologies": 2776, "\u2581fuel": 2777, "\u2581highly": 2778, "\u2581OF": 2779, "aught": 2780, "\u2581bathroom": 2781, "22": 2782, "\u2581bad": 2783, "\u2581error": 2784, "\u2581channel": 2785, "\u2581compared": 2786, "\u2581distance": 2787, "\u2581Great": 2788, "tech": 2789, "\u2581birth": 2790, "\u2581scientific": 2791, "Re": 2792, "\u2581route": 2793, "91": 2794, "\u2581ticket": 2795, "\u2581Men": 2796, "\u2581Although": 2797, "\u2581overall": 2798, "\u2581agencies": 2799, "\u2581fear": 2800, "\u2581cities": 2801, "\u2581zone": 2802, "\u2581substance": 2803, "oph": 2804, "\u2581package": 2805, "\u2581alone": 2806, "\u2581Last": 2807, "\u2581Rental": 2808, "\u2581remember": 2809, "\u2581double": 2810, "\u2581finish": 2811, "UN": 2812, "\u2581majority": 2813, "&": 2814, "\u2581stock": 2815, "grat": 2816, "\u2581secret": 2817, "\u2581kid": 2818, "\u2581Iran": 2819, "\u2581insurance": 2820, "\u2581establishment": 2821, "\u2581shop": 2822, "ville": 2823, "\u2581crisis": 2824, "\u2581List": 2825, "\u2581Programme": 2826, "\u2581reduction": 2827, "\u2581reveal": 2828, "\u2581portion": 2829, "\u2581Tri": 2830, "\u2581innovative": 2831, "pper": 2832, "\u2581consultation": 2833, "\u2581server": 2834, "\u2581technique": 2835, "\u2581sometimes": 2836, "\u2581criminal": 2837, "\u2581saw": 2838, "TM": 2839, "85": 2840, "\u2581recently": 2841, "\u2581hospital": 2842, "\u2581mine": 2843, "lip": 2844, "\u2581valid": 2845, "\u2581generate": 2846, "\u2581Institute": 2847, "\u2581Pen": 2848, "\u2581sum": 2849, "\u2581couple": 2850, "\u2581domestic": 2851, "rough": 2852, "\u2581announced": 2853, "media": 2854, "\u2581Just": 2855, "\u2581alternative": 2856, "ING": 2857, "MP": 2858, "\u2581tree": 2859, "\u2581rise": 2860, "\u2581morning": 2861, "88": 2862, "\u2581growing": 2863, "\u2581investigation": 2864, "\u2581constant": 2865, "\u2581Switzerland": 2866, "\u2581identified": 2867, "\u2581Today": 2868, "\u2581Code": 2869, "\u2581justice": 2870, "\u2581association": 2871, "hum": 2872, "ault": 2873, "23": 2874, "\u2581wine": 2875, "49": 2876, "\u2581Ministry": 2877, "\u2581drop": 2878, "\u2581chance": 2879, "\u2581minimum": 2880, "\u2581manufacturer": 2881, "\u2581writing": 2882, "\u2581released": 2883, "\u2581primary": 2884, "\u2581voice": 2885, "\u2581administration": 2886, "\u2581radio": 2887, "\u2581committee": 2888, "\u2581photograph": 2889, "\u2581tend": 2890, "\u2581Palestinian": 2891, "\u2581Quebec": 2892, "\u2581summer": 2893, "\u2581volume": 2894, "\u2581Post": 2895, "\u2581Share": 2896, "with": 2897, "\u2581transmit": 2898, "\u2581storage": 2899, "\u2581famous": 2900, "\u2581expand": 2901, "39": 2902, "\u2581assess": 2903, "\u2581internet": 2904, "\u2581motor": 2905, "\u2581count": 2906, "\u2581smart": 2907, "\u2581prison": 2908, "\u2581Education": 2909, "\u2581agenda": 2910, "\u2581Paul": 2911, "\u2581Time": 2912, "\u2581Company": 2913, "\u2581multiple": 2914, "active": 2915, "\u2581chemical": 2916, "imate": 2917, "\u2581minor": 2918, "\u2581determined": 2919, "\u2581fine": 2920, "\u2581cancer": 2921, "\u2581dream": 2922, "\u2581convert": 2923, "ctic": 2924, "\u2581button": 2925, "\u2581creating": 2926, "44": 2927, "\u2581counter": 2928, "\u2581strategic": 2929, "\u2581race": 2930, "\u2581career": 2931, "\u2581hydro": 2932, "\u2581gave": 2933, "volution": 2934, "\u2581Shi": 2935, "\u2581street": 2936, "\u2581efficient": 2937, "\u2581approved": 2938, "\u2581rich": 2939, "\u2581effort": 2940, "\u2581judge": 2941, "\u2581UK": 2942, "\u2581Korea": 2943, "\u2581Trade": 2944, "\u2581Restaurant": 2945, "$": 2946, "\u2581Affairs": 2947, "\u2581spirit": 2948, "\u2581extension": 2949, "\u2581Islam": 2950, "\u2581category": 2951, "\u2581Arch": 2952, "flu": 2953, "\u2581detailed": 2954, "\u2581round": 2955, "\u2581circumstances": 2956, "\u2581historical": 2957, "\u2581window": 2958, "\u2581Cap": 2959, "\u2581Association": 2960, "\u2581survey": 2961, "\u2581Also": 2962, "89": 2963, "\u2581highest": 2964, "\u2581critical": 2965, "itude": 2966, "\u2581powerful": 2967, "\u2581rid": 2968, "\u2581Yes": 2969, "\u2581promotion": 2970, "\u2581sex": 2971, "\u2581About": 2972, "\u2581fundamental": 2973, "\u2581religious": 2974, "\u2581Two": 2975, "\u2581Executive": 2976, "41": 2977, "ulated": 2978, "\u2581trend": 2979, "42": 2980, "\u2581eight": 2981, "\u2581kitchen": 2982, "pho": 2983, "\u2581giving": 2984, "43": 2985, "OL": 2986, "\u2581gold": 2987, "\u2581sufficient": 2988, "\u2581privacy": 2989, "\u2581integrated": 2990, "\u2581strength": 2991, "\u2581fruit": 2992, "\u2581filter": 2993, "\u2581transaction": 2994, "off": 2995, "\u2581comprising": 2996, "\u2581warm": 2997, "\u2581gender": 2998, "\u25811999": 2999, "\u2581Open": 3000, "tribute": 3001, "\u2581Project": 3002, "\u2581installation": 3003, "\u2581manager": 3004, "\u2581Market": 3005, "\u2581Grand": 3006, "\u2581participants": 3007, "\u2581Western": 3008, "\u2581Vol": 3009, "\u2581constitute": 3010, "\u2581fulfil": 3011, "\u2581improvement": 3012, "\u2581submit": 3013, "\u2581Opera": 3014, "47": 3015, "\u2581schedule": 3016, "\u2581favour": 3017, "\u2581labour": 3018, "\u2581Villa": 3019, "\u2581Super": 3020, "\u2581Egypt": 3021, "\u2581listen": 3022, "\u2581glass": 3023, "\u2581probably": 3024, "\u2581Museum": 3025, "\u2581excellent": 3026, "\u2581interpret": 3027, "\u2581Weather": 3028, "\u2581arrive": 3029, "\u2581acquire": 3030, "\u2581Water": 3031, "\u2581driver": 3032, "poli": 3033, "\u2581mountain": 3034, "\u2581browser": 3035, "\u2581useful": 3036, "minute": 3037, "\u2581equipped": 3038, "\u2581sleep": 3039, "pha": 3040, "\u2581brother": 3041, "well": 3042, "loc": 3043, "\u2581Holiday": 3044, "\u2581bio": 3045, "\u2581circuit": 3046, "\u2581trial": 3047, "\u2581permanent": 3048, "\u2581belong": 3049, "\u2581Spanish": 3050, "87": 3051, "\u2581worth": 3052, "\u2581approximately": 3053, "\u2581comprehensive": 3054, "\u2581anyone": 3055, "\u2581Auto": 3056, "\u2581monitor": 3057, "\u2581(2)": 3058, "\u2581Design": 3059, "\u2581colour": 3060, "\u2581evaluation": 3061, "\u2581heard": 3062, "\u2581prove": 3063, "\u2581Good": 3064, "\u2581administrative": 3065, "46": 3066, "\u2581Iraq": 3067, "\u2581Because": 3068, "\u2581behalf": 3069, "\u2581sold": 3070, "\u2581reality": 3071, "\u2581facilitate": 3072, "\u2581seat": 3073, "\u2581properties": 3074, "\u2581hour": 3075, "\u2581User": 3076, "\u2581destroy": 3077, "\u2581wh": 3078, "64": 3079, "\u2581dedicated": 3080, "\u2581although": 3081, "\u2581Green": 3082, "63": 3083, "\u25811998": 3084, "\u2581Center": 3085, "TH": 3086, "\u2581Thus": 3087, "\u2581mentioned": 3088, "\u2581aspects": 3089, "\u2581Once": 3090, "\u2581Author": 3091, "\u2581territory": 3092, "\u2581definition": 3093, "\u2581instead": 3094, "\u2581Guide": 3095, "\u2581advice": 3096, "\u2581preparation": 3097, "\u2581demonstrate": 3098, "\u2581slow": 3099, "\u2581consent": 3100, "\u2581exclusive": 3101, "\u2581Follow": 3102, "\u2581spoke": 3103, "\u2581Italian": 3104, "\u2581Guest": 3105, "\u2581School": 3106, "\u2581topic": 3107, "\u2581band": 3108, "\u2581occasion": 3109, "gri": 3110, "\u2581operator": 3111, "\u2581criteria": 3112, "\u2581memory": 3113, "77": 3114, "58": 3115, "\u2581debt": 3116, "lumin": 3117, "\u2581priority": 3118, "67": 3119, "\u2581Support": 3120, "\u2581composition": 3121, "\u2581Science": 3122, "\u2581aircraft": 3123, "\u2581Year": 3124, "\u2581efficiency": 3125, "\u2581sample": 3126, "\u2581Power": 3127, "86": 3128, "\u2581medium": 3129, "igh": 3130, "\u2581Earth": 3131, "\u2581negative": 3132, "\u2581outcome": 3133, "\u2581reaction": 3134, "This": 3135, "\u2581Treaty": 3136, "\u2581Annex": 3137, "\u2581practical": 3138, "\u2581instance": 3139, "\u2581master": 3140, "\u2581consumption": 3141, "\u2581mandate": 3142, "\u2581decide": 3143, "56": 3144, "\u2581Force": 3145, "\u2581White": 3146, "51": 3147, "\u2581Para": 3148, "29": 3149, "\u2581appeal": 3150, "\u2581spread": 3151, "\u2581debate": 3152, "\u2581deposit": 3153, "\u2581typical": 3154, "\u2581electro": 3155, "\u2581description": 3156, "\u2581Belgium": 3157, "\u2581Food": 3158, "\u2581supplement": 3159, "\u2581Camp": 3160, "\u2581mid": 3161, "\u2581consequence": 3162, "\u2581Parties": 3163, "\u2581cycle": 3164, "\u2581scale": 3165, "\u2581collaboration": 3166, "\u2581Israeli": 3167, "\u2581combination": 3168, "59": 3169, "\u2581destination": 3170, "\u2581poverty": 3171, "\u2581Brazil": 3172, "\u2581defend": 3173, "\u2581Netherlands": 3174, "\u2581rapid": 3175, "\u2581delegation": 3176, "\u2581otherwise": 3177, "\u2581candidate": 3178, "28": 3179, "\u2581cook": 3180, "\u2581maintenance": 3181, "98": 3182, "\u2581Life": 3183, "\u2581output": 3184, "\u2581journal": 3185, "life": 3186, "\u2581exceed": 3187, "\u2581earn": 3188, "\u2581attach": 3189, "You": 3190, "\u2581symbol": 3191, "\u2581entitled": 3192, "\u2581highlight": 3193, "\u2581dry": 3194, "\u2581profit": 3195, "\u2581plate": 3196, "\u2581comfortable": 3197, "\u2581extent": 3198, "\u2581panel": 3199, "\u2581Watch": 3200, "\u2581Trip": 3201, "\u2581manual": 3202, "\u2581database": 3203, "\u2581promise": 3204, "\u2581worldwide": 3205, "57": 3206, "\u2581Therefore": 3207, "\u2581numerous": 3208, "\u2581Take": 3209, "\u2581enforce": 3210, "\u2581Travel": 3211, "\u2581entry": 3212, "\u2581regime": 3213, "\u2581minister": 3214, "\u2581explore": 3215, "\u2581miles": 3216, "68": 3217, "\u2581audit": 3218, "\u2581burn": 3219, "\u2581brain": 3220, "\u2581wrong": 3221, "66": 3222, "\u2581actual": 3223, "\u2581interview": 3224, "\u2581gather": 3225, "\u2581integration": 3226, "\u2581coast": 3227, "78": 3228, "\u2581compliance": 3229, "\u2581absolute": 3230, "\u2581bedroom": 3231, "\u2581registration": 3232, "\u2581Middle": 3233, "\u2581Rome": 3234, "\u2581Lake": 3235, "61": 3236, "\u2581Number": 3237, "\u2581witness": 3238, "mount": 3239, "\u2581steel": 3240, "\u2581camera": 3241, "\u2581north": 3242, "\u2581finance": 3243, "\u2581substantial": 3244, "\u2581weapons": 3245, "52": 3246, "\u2581liquid": 3247, "\u2581euro": 3248, "\u2581dark": 3249, "direct": 3250, "\u2581Invest": 3251, "\u2581Ireland": 3252, "\u2581Second": 3253, "\u2581label": 3254, "\u2581enterprise": 3255, "\u2581sustain": 3256, "\u2581comfort": 3257, "\u2581supplier": 3258, "\u2581carbon": 3259, "\u2581transition": 3260, "\u2581broke": 3261, "ancing": 3262, "\u2581favorite": 3263, "\u2581Protection": 3264, "\u2581revolution": 3265, "\u2581formula": 3266, "\u2581convention": 3267, "\u2581dollar": 3268, "\u2581suitable": 3269, "\u2581instruction": 3270, "54": 3271, "\u2581dialogue": 3272, "\u2581Expedia": 3273, "\u2581Standard": 3274, "\u2581license": 3275, "\u2581gift": 3276, "\u2581Place": 3277, "\u2581Class": 3278, "\u2581Mexico": 3279, "fold": 3280, "\u2581conclusion": 3281, "\u2581lose": 3282, "\u2581expertise": 3283, "\u2581running": 3284, "\u2581religion": 3285, "\u2581mu": 3286, "\u2581Network": 3287, "\u2581awareness": 3288, "encies": 3289, "\u2581ensuring": 3290, "72": 3291, "\u2581Children": 3292, "\u2581violation": 3293, "\u2581Turkey": 3294, "\u2581competitive": 3295, "\u2581EUR": 3296, "53": 3297, "\u2581pattern": 3298, "\u2581urban": 3299, "\u2581Federal": 3300, "\u2581expression": 3301, "\u2581mental": 3302, "\u2581female": 3303, "\u2581prepare": 3304, "\u2581Like": 3305, "\u2581chair": 3306, "quality": 3307, "\u2581River": 3308, "\u2581Gold": 3309, "\u2581delay": 3310, "\u2581Jean": 3311, "\u2581David": 3312, "\u2581fresh": 3313, "\u2581housing": 3314, "\u2581compound": 3315, "figur": 3316, "ography": 3317, "\u2581Learn": 3318, "\u2581Personal": 3319, "\u2581examine": 3320, "\u2581repeat": 3321, "\u2581negotiation": 3322, "\u2581declare": 3323, "\u2581translation": 3324, "related": 3325, "\u2581strategies": 3326, "\u2581workshop": 3327, "\u2581medicine": 3328, "position": 3329, "\u2581abuse": 3330, "\u2581blue": 3331, "\u2581Greece": 3332, "\u2581wave": 3333, "97": 3334, "contin": 3335, "\u2581frame": 3336, "\u2581approval": 3337, "\u2581Austria": 3338, "craft": 3339, "\u2581Montreal": 3340, "\u2581consistent": 3341, "\u2581Anti": 3342, "\u2581habit": 3343, "\u2581wrote": 3344, "\u2581Section": 3345, "73": 3346, "\u2581Beach": 3347, "\u2581possibility": 3348, "\u2581possess": 3349, "\u2581assets": 3350, "\u2581journey": 3351, "\u2581Description": 3352, "\u2581module": 3353, "\u2581chosen": 3354, "79": 3355, "\u2581Brussels": 3356, "\u2581Control": 3357, "\u2581organized": 3358, "\u2581moving": 3359, "\u2581identity": 3360, "ATION": 3361, "\u2581automatically": 3362, "\u2581nice": 3363, "\u2581earlier": 3364, "\u2581quarter": 3365, "76": 3366, "83": 3367, "\u2581prohibit": 3368, "\u2581applicant": 3369, "\u2581Justice": 3370, "\u2581Apartment": 3371, "\u2581Meeting": 3372, "\u2581Blue": 3373, "\u2581spiritual": 3374, "\u2581Travelocity": 3375, "\u2581improving": 3376, "\u2581municipal": 3377, "\u2581specifically": 3378, "\u2581agency": 3379, "96": 3380, "\u2581failure": 3381, "\u2581spot": 3382, "\u2581student": 3383, "\u2581huge": 3384, "\u2581baby": 3385, "\u2581Energy": 3386, "\u2581resource": 3387, "\u2581divide": 3388, "\u2581emergency": 3389, "\u2581Click": 3390, "\u2581duration": 3391, "known": 3392, "\u2581Foundation": 3393, "\u2581domain": 3394, "\u2581Answers": 3395, "\u2581dimension": 3396, "\u2581felt": 3397, "\u2581adequate": 3398, "\u2581switch": 3399, "\u2581Royal": 3400, "\u2581doubt": 3401, "\u2581truly": 3402, "\u2581Family": 3403, "\u2581humanitarian": 3404, "\u2581transmission": 3405, "\u2581relax": 3406, "ounce": 3407, "\u2581statistics": 3408, "\u2581HIV": 3409, "69": 3410, "84": 3411, "\u2581exactly": 3412, "\u2581publish": 3413, "\u2581continuous": 3414, "\u2581manufacture": 3415, "\u2581subsequent": 3416, "\u2581sort": 3417, "\u2581Protocol": 3418, "\u2581combat": 3419, "\u2581specified": 3420, "81": 3421, "\u2581advise": 3422, "\u2581wife": 3423, "\u2581Decision": 3424, "\u2581Friday": 3425, "\u2581receiving": 3426, "long": 3427, "\u2581Another": 3428, "\u2581Hotwire": 3429, "\u2581Flights": 3430, "\u2581passenger": 3431, "\u2581leadership": 3432, "\u2581employee": 3433, "\u2581distinct": 3434, "\u2581scope": 3435, "\u2581Twitter": 3436, "\u2581availability": 3437, "product": 3438, "\u25811994": 3439, "\u2581tradition": 3440, "\u2581Peter": 3441, "\u2581announce": 3442, "\u2581withdraw": 3443, "\u2581Street": 3444, "\u2581tourist": 3445, "\u2581Foreign": 3446, "Univers": 3447, "\u2581Transport": 3448, "(1)": 3449, "\u2581compare": 3450, "solv": 3451, "\u2581Next": 3452, "\u2581Media": 3453, "\u2581psycho": 3454, "\u2581visual": 3455, "\u25811997": 3456, "\u2581intervention": 3457, "stitute": 3458, "\u2581knew": 3459, "\u2581myself": 3460, "\u2581decrease": 3461, "\u2581Order": 3462, "\u2581dynamic": 3463, "\u2581concentration": 3464, "\u2581indicator": 3465, "\u2581scene": 3466, "\u2581infection": 3467, "\u2581commission": 3468, "\u2581manufacturing": 3469, "\u2581Safety": 3470, "\u2581agricultural": 3471, "\u2581Video": 3472, "\u2581Through": 3473, "\u2581calculate": 3474, "\u2581rank": 3475, "\u25811996": 3476, "\u2581Prime": 3477, "\u201c": 3478, "\u2581embodiment": 3479, "\u2581Spirit": 3480, "\u2581background": 3481, "\u2581revenue": 3482, "\u2581certificate": 3483, "down": 3484, "\u2581river": 3485, "\u2581proportion": 3486, "\u2581Muslim": 3487, "\u2581rural": 3488, "\u2581Father": 3489, "\u2581realize": 3490, "\u2581latter": 3491, "front": 3492, "\u2581arrest": 3493, "\u2581deploy": 3494, "\u2581tea": 3495, "\u2581middle": 3496, "\u2581wheel": 3497, "\u2581kept": 3498, "\u2581spring": 3499, "\u2581exhibition": 3500, "\u2581expense": 3501, "\u2581perspective": 3502, "\u2581accident": 3503, "\u2581England": 3504, "\u2581characteristics": 3505, "\u2581surrounding": 3506, "\u2581Finally": 3507, "\u2581Financial": 3508, "\u2581guidelines": 3509, "\u2581album": 3510, "\u2581virtual": 3511, "\u2581vessel": 3512, "free": 3513, "\u2581edge": 3514, "\u2581wild": 3515, "\u2581emissions": 3516, "\u2581chart": 3517, "\u2581refuse": 3518, "\u2581snow": 3519, "\u2581AND": 3520, "\u2581regulatory": 3521, "\u2581communicate": 3522, "\u2581television": 3523, "\u2581driving": 3524, "\u2581contest": 3525, "\u2581solve": 3526, "\u2581Website": 3527, "\u2581saving": 3528, "\u2581financing": 3529, "\u2581despite": 3530, "\u2581battle": 3531, "\u2581sharing": 3532, "\u2581coffee": 3533, "\u2581cloud": 3534, "\u2581struggle": 3535, "cru": 3536, "\u2581Change": 3537, "\u2581Quality": 3538, "\u2581becoming": 3539, "\u2581district": 3540, "\u2581Furthermore": 3541, "\u2581discrimination": 3542, "\u2581repair": 3543, "\u2581Technology": 3544, "\u2581satellite": 3545, "\u2581promoting": 3546, "ground": 3547, "\u2581precise": 3548, "\u2581Mission": 3549, "www": 3550, "\u2581personnel": 3551, "\u2581Before": 3552, "\u2581plastic": 3553, "\u2581predict": 3554, "\u2581Sunday": 3555, "\u2581residence": 3556, "\u2581jurisdiction": 3557, "\u2581frequency": 3558, "\u2581sensor": 3559, "onym": 3560, "\u2581categories": 3561, "\u2581pursuant": 3562, "\u2581pleasure": 3563, "\u2581ratio": 3564, "\u2581Monday": 3565, "\u2581museum": 3566, "\u2581Those": 3567, "\u2581extract": 3568, "\u2581cancel": 3569, "00,000": 3570, "\u2581muscle": 3571, "\u2581experiment": 3572, "\u2581define": 3573, "\u2581branch": 3574, "\u2581Music": 3575, "\u2581Portugal": 3576, "\u2581applies": 3577, "\u2581Secretariat": 3578, "\u2581architecture": 3579, "\u2581Swiss": 3580, "\u2581celebrate": 3581, "\u2581bottom": 3582, "\u2581reducing": 3583, "\u2581Luxembourg": 3584, "\u2581marriage": 3585, "\u2581exploit": 3586, "\u2581Additional": 3587, "\u2581Geneva": 3588, "\u2581illegal": 3589, "communic": 3590, "\u2581Ukraine": 3591, "\u2581nine": 3592, "\u2581advertising": 3593, "\u2581Options": 3594, "\u2581resistance": 3595, "\u2581ongoing": 3596, "\u2581Czech": 3597, "\u2581broadcast": 3598, "\u2581recognition": 3599, "\u2581Jewish": 3600, "\u2581dangerous": 3601, "\u2581reliable": 3602, "\u2581Organ": 3603, "\u2581brief": 3604, "\u2581Privacy": 3605, "\u2581observation": 3606, "\u2581changing": 3607, "\u2581Communication": 3608, "field": 3609, "\u2581(3)": 3610, "\u2581Moreover": 3611, "\u2581subsection": 3612, "\u2581severe": 3613, "\u2581easier": 3614, "\u2581Sweden": 3615, "\u2581score": 3616, "\u2581senior": 3617, "\u2581accurate": 3618, "\u2581alert": 3619, "\u2581arrival": 3620, "\u2581dress": 3621, "\u2581dispute": 3622, "\u2581Trump": 3623, "including": 3624, "\u2581atmosphere": 3625, "\u2581Society": 3626, "\u2581Peace": 3627, "\u2581afford": 3628, "\u2581protein": 3629, "\u2581appointed": 3630, "\u2581corporate": 3631, "therapy": 3632, "\u2581ingredient": 3633, "\u2581incorporate": 3634, "TION": 3635, "\u2581terminal": 3636, "\u2581Japanese": 3637, "\u2581breath": 3638, "\u2581daughter": 3639, "\u2581patent": 3640, "\u2581pronunciation": 3641, "\u2581stakeholders": 3642, "\u2581excess": 3643, "\u2581Microsoft": 3644, "\u2581scheme": 3645, "national": 3646, "\u2581assume": 3647, "\u2581neighbor": 3648, "\u2581beauty": 3649, "\u2581fashion": 3650, "\u2581exposure": 3651, "\u2581Chief": 3652, "\u2581ourselves": 3653, "\u2581ultimate": 3654, "\u2581Prince": 3655, "\u2581Club": 3656, "\u2581pilot": 3657, "\u2581universal": 3658, "\u2581Federation": 3659, "\u2581taste": 3660, "\u2581delete": 3661, "\u2581estate": 3662, "\u2581assembly": 3663, "\u2581extensive": 3664, "\u2581Reservation": 3665, "\u2581equivalent": 3666, "\u2581surprise": 3667, "\u2581breakfast": 3668, "depend": 3669, "\u2581Account": 3670, "\u2581coordination": 3671, "\u2581heavy": 3672, "\u2581quiet": 3673, "\u2581incident": 3674, "\u2581Private": 3675, "\u2581emerge": 3676, "\u2581decline": 3677, "\u2581Barcelona": 3678, "\u2581landscape": 3679, "\u2581expenditure": 3680, "\u2581immediate": 3681, "\u2581alcohol": 3682, "\u2581creative": 3683, "\u2581square": 3684, "\u2581perhaps": 3685, "crypt": 3686, "\u2581Type": 3687, "\u2581currency": 3688, "\u2581Catholic": 3689, "\u2581Radio": 3690, "\u2581Washington": 3691, "\u2581Greek": 3692, "\u2581Visit": 3693, "\u2581eliminate": 3694, "\u2581Model": 3695, "\u2581remind": 3696, "\u2581obvious": 3697, "\u2581Declaration": 3698, "\u2581pipe": 3699, "\u2581virus": 3700, "\u2581recruit": 3701, "\u2581Stock": 3702, "\u2581Toronto": 3703, "\u2581audio": 3704, "\u2581settlement": 3705, "\u2581Orbitz": 3706, "\u2581interface": 3707, "\u2581coordinate": 3708, "\u2581behavior": 3709, "\u2581tire": 3710, "\u2581remote": 3711, "\u2581temporary": 3712, "\u2581Multi": 3713, "\u2581guy": 3714, "\u2581situated": 3715, "\u2581George": 3716, "solution": 3717, "\u2581competent": 3718, "\u2581provincial": 3719, "\u2581Official": 3720, "\u2581Android": 3721, "\u2581Current": 3722, "\u2581Ocean": 3723, "\u2581Heritage": 3724, "\u2581heritage": 3725, "\u2581audience": 3726, "\u2581tank": 3727, "\u2581shift": 3728, "\u2581concluded": 3729, "\u2581biggest": 3730, "\u2581parliament": 3731, "\u2581wealth": 3732, "\u2581Cancelon": 3733, "\u2581Representative": 3734, "\u2581acknowledge": 3735, "\u2581intelligence": 3736, "\u2581carrier": 3737, "\u2581guidance": 3738, "\u2581Climate": 3739, "\u2581Chapter": 3740, "\u2581flexible": 3741, "\u2581colon": 3742, "\u2581Christmas": 3743, "\u2581fluid": 3744, "\u2581executive": 3745, "\u2581speech": 3746, "\u2581belief": 3747, "\u2581Mediterranean": 3748, "\u2581husband": 3749, "\u2581involving": 3750, "\u2581honour": 3751, "\u2581iPhone": 3752, "\u2581authentic": 3753, "\u2581diversity": 3754, "\u2581Francis": 3755, "\u2581leaving": 3756, "\u2581intellectual": 3757, "building": 3758, "\u2581Olympic": 3759, "\u2581Application": 3760, "\u2581absence": 3761, "\u2581Digital": 3762, "\u2581democracy": 3763, "\u2581mutual": 3764, "\u2581Terms": 3765, "\u2581Manager": 3766, "AIDS": 3767, "\u2581Previous": 3768, "\u2581KAYAK": 3769, "\u2581Civil": 3770, "\u2581preserve": 3771, "\u2581licence": 3772, "\u2581horse": 3773, "\u2581axis": 3774, "\u2581impossible": 3775, "\u2581resolve": 3776, "\u2581Northern": 3777, "\u2581corporation": 3778, "\u2581continuing": 3779, "\u2581fabric": 3780, "\u2581Discover": 3781, "\u2581behaviour": 3782, "\u2581Jews": 3783, "\u2581graphic": 3784, "\u2581punish": 3785, "\u2581complement": 3786, "\u2581concrete": 3787, "\u2581continent": 3788, "\u2581critic": 3789, "\u2581annex": 3790, "\u2581column": 3791, "\u2581luxury": 3792, "\u2581neither": 3793, "\u2581telephone": 3794, "\u2581boost": 3795, "\u2581evaluate": 3796, "\u2581Louis": 3797, "\u2581neighbour": 3798, "\u2581comparison": 3799, "\u2581guest": 3800, "\u2581danger": 3801, "\u2581strike": 3802, "\u2581occupation": 3803, "\u2581sister": 3804, "\u2581Help": 3805, "\u2581battery": 3806, "\u2581illustrate": 3807, "\u2581recall": 3808, "friend": 3809, "\u2581calendar": 3810, "\u2581appreciate": 3811, "\u2581chapter": 3812, "\u2581parallel": 3813, "\u2581visible": 3814, "\u2581disappear": 3815, "\u2581Resort": 3816, "responsibilities": 3817, "\u2581terrace": 3818, "\u2581History": 3819, "claim": 3820, "\u2581Merc": 3821, "\u2581diploma": 3822, "\u2581university": 3823, "print": 3824, "\u2581Wednesday": 3825, "\u2581murder": 3826, "\u2581Technical": 3827, "\u2581talent": 3828, "\u2581segment": 3829, "\u2581Three": 3830, "\u2581democratic": 3831, "\u2581entrepreneur": 3832, "\u2581Thursday": 3833, "\u2581Ottawa": 3834, "\u2581compensation": 3835, "\u2581academic": 3836, "\u2581lawyer": 3837, "\u2581historic": 3838, "\u2581guard": 3839, "\u2581warrant": 3840, "\u2581understood": 3841, "\u2581declaration": 3842, "\u2581ISO": 3843, "\u2581Shop": 3844, "\u2581Saturday": 3845, "\u2581abroad": 3846, "\u2581barrier": 3847, "\u2581facility": 3848, "\u2581magnet": 3849, "\u2581examination": 3850, "\u2581GDP": 3851, "5,000": 3852, "\u2581straight": 3853, "\u2581Content": 3854, "\u2581appointment": 3855, "\u2581Tuesday": 3856, "\u2581Queen": 3857, "\u2581Welcome": 3858, "\u2581disaster": 3859, "\u2581identification": 3860, "\u2581concert": 3861, "\u2581acquisition": 3862, "\u2581eligible": 3863, "\u2581Despite": 3864, "\u2581priest": 3865, "\u2581Training": 3866, "\u2581interaction": 3867, "\u2581Pacific": 3868, "\u2581Qu\u00e9bec": 3869, "\u2581twenty": 3870, "\u2581primarily": 3871, "\u2581stories": 3872, "\u2581volunteer": 3873, "\u2581Saudi": 3874, "\u2581Print": 3875, "\u2581agriculture": 3876, "\u2581Garden": 3877, "\u2581Michael": 3878, "\u2581chief": 3879, "\u2581Language": 3880, "\u2581outdoor": 3881, "\u2581opposite": 3882, "\u2581introduction": 3883, "\u2581Location": 3884, "ologist": 3885, ">": 3886, "\u2581Croatia": 3887, "\u2581Vietnam": 3888, "\u2581Cross": 3889, "\u2581mechanical": 3890, "\u2581Natural": 3891, "\u2581resort": 3892, "\u2581Airbnb": 3893, "\u2581milk": 3894, "\u2581opposition": 3895, "\u2581shopping": 3896, "\u2581heaven": 3897, "\u2581inspection": 3898, "\u2581expansion": 3899, "\u2581pursue": 3900, "\u2581architect": 3901, "\u2581retire": 3902, "\u2581Eastern": 3903, "\u2581Cuba": 3904, "uzz": 3905, "\u2581composed": 3906, "\u2581Denmark": 3907, "\u2581Tickets": 3908, "\u2581technological": 3909, "\u2581sponsor": 3910, "\u2581trouble": 3911, "\u2581Festival": 3912, "\u2581vulnerable": 3913, "\u2581Finland": 3914, "\u2581encounter": 3915, "\u2581principal": 3916, "\u2581regulate": 3917, "\u2581disclose": 3918, "\u2581Zealand": 3919, "\u2581undertaking": 3920, "\u2581sensitive": 3921, "operative": 3922, "\u2581Philip": 3923, "\u2581radical": 3924, "\u2581residents": 3925, "\u2581configuration": 3926, "\u2581Democratic": 3927, "\u2581contemporary": 3928, "\u2581accomplish": 3929, "\u2581ocean": 3930, "\u2581succeed": 3931, "\u2581Whether": 3932, "\u2581strip": 3933, "\u2581Jerusalem": 3934, "\u2581magic": 3935, "\u2581Electric": 3936, "\u2581Resources": 3937, "\u2581false": 3938, "\u2581California": 3939, "\u2581married": 3940, "\u2581Direct": 3941, "\u2581CEO": 3942, "\u2581ethnic": 3943, "\u2581judgment": 3944, "\u2581honor": 3945, "\u2581attitude": 3946, "\u2581pretty": 3947, "\u2581Strategy": 3948, "\u2581Software": 3949, "\u2581disorder": 3950, "\u2581Morocco": 3951, "\u2581independence": 3952, "\u2581College": 3953, "\u2581industries": 3954, "makers": 3955, "\u2581crucial": 3956, "\u2581vegetable": 3957, "\u2581amazing": 3958, "cultural": 3959, "\u2581protocol": 3960, "\u2581conversation": 3961, "\u2581recognise": 3962, "\u2581swimming": 3963, "1%": 3964, "\u2581[...]": 3965, "\u2581undertaken": 3966, "\u2581legislative": 3967, "\u2581destruction": 3968, "\u2581colleague": 3969, "\u2581expensive": 3970, "\u2581furniture": 3971, "\u2581Country": 3972, "\u2581indigenous": 3973, "\u2581tissue": 3974, "\u2581HotelQuickly": 3975, "\u2581Senator": 3976, "\u2581Vacation": 3977, "\u2581migrant": 3978, "\u2581analyse": 3979, "\u2581defence": 3980, "What": 3981, "\u2581Excel": 3982, "\u2581conversion": 3983, "\u2581Micro": 3984, "\u2581participating": 3985, "\u2581escape": 3986, "\u2581Close": 3987, "\u2581Thailand": 3988, "\u2581pull": 3989, "\u2581distributed": 3990, "\u2581Industry": 3991, "\u2581Atlantic": 3992, "\u2581reinforce": 3993, "\u2581worse": 3994, "\u2581PDF": 3995, "\u2581adventure": 3996, "\u2581festival": 3997, "\u2581legitimate": 3998, "\u2018": 3999}